node {
  name: "zeros"
  op: "Const"
  attr {
    key: "dtype"
    value {
      type: DT_FLOAT
    }
  }
  attr {
    key: "value"
    value {
      tensor {
        dtype: DT_FLOAT
        tensor_shape {
          dim {
            size: 120
          }
        }
        float_val: 0.0
      }
    }
  }
}
node {
  name: "audio_inputs"
  op: "VariableV2"
  attr {
    key: "container"
    value {
      s: ""
    }
  }
  attr {
    key: "dtype"
    value {
      type: DT_FLOAT
    }
  }
  attr {
    key: "shape"
    value {
      shape {
        dim {
          size: 120
        }
      }
    }
  }
  attr {
    key: "shared_name"
    value {
      s: ""
    }
  }
}
node {
  name: "audio_inputs/Assign"
  op: "Assign"
  input: "audio_inputs"
  input: "zeros"
  attr {
    key: "T"
    value {
      type: DT_FLOAT
    }
  }
  attr {
    key: "_class"
    value {
      list {
        s: "loc:@audio_inputs"
      }
    }
  }
  attr {
    key: "use_locking"
    value {
      b: true
    }
  }
  attr {
    key: "validate_shape"
    value {
      b: true
    }
  }
}
node {
  name: "audio_inputs/read"
  op: "Identity"
  input: "audio_inputs"
  attr {
    key: "T"
    value {
      type: DT_FLOAT
    }
  }
  attr {
    key: "_class"
    value {
      list {
        s: "loc:@audio_inputs"
      }
    }
  }
}
node {
  name: "zeros_1"
  op: "Const"
  attr {
    key: "dtype"
    value {
      type: DT_FLOAT
    }
  }
  attr {
    key: "value"
    value {
      tensor {
        dtype: DT_FLOAT
        tensor_shape {
          dim {
            size: 120
          }
        }
        float_val: 0.0
      }
    }
  }
}
node {
  name: "midi_inputs"
  op: "VariableV2"
  attr {
    key: "container"
    value {
      s: ""
    }
  }
  attr {
    key: "dtype"
    value {
      type: DT_FLOAT
    }
  }
  attr {
    key: "shape"
    value {
      shape {
        dim {
          size: 120
        }
      }
    }
  }
  attr {
    key: "shared_name"
    value {
      s: ""
    }
  }
}
node {
  name: "midi_inputs/Assign"
  op: "Assign"
  input: "midi_inputs"
  input: "zeros_1"
  attr {
    key: "T"
    value {
      type: DT_FLOAT
    }
  }
  attr {
    key: "_class"
    value {
      list {
        s: "loc:@midi_inputs"
      }
    }
  }
  attr {
    key: "use_locking"
    value {
      b: true
    }
  }
  attr {
    key: "validate_shape"
    value {
      b: true
    }
  }
}
node {
  name: "midi_inputs/read"
  op: "Identity"
  input: "midi_inputs"
  attr {
    key: "T"
    value {
      type: DT_FLOAT
    }
  }
  attr {
    key: "_class"
    value {
      list {
        s: "loc:@midi_inputs"
      }
    }
  }
}
node {
  name: "zeros_2"
  op: "Const"
  attr {
    key: "dtype"
    value {
      type: DT_FLOAT
    }
  }
  attr {
    key: "value"
    value {
      tensor {
        dtype: DT_FLOAT
        tensor_shape {
          dim {
            size: 120
          }
        }
        float_val: 0.0
      }
    }
  }
}
node {
  name: "Variable"
  op: "VariableV2"
  attr {
    key: "container"
    value {
      s: ""
    }
  }
  attr {
    key: "dtype"
    value {
      type: DT_FLOAT
    }
  }
  attr {
    key: "shape"
    value {
      shape {
        dim {
          size: 120
        }
      }
    }
  }
  attr {
    key: "shared_name"
    value {
      s: ""
    }
  }
}
node {
  name: "Variable/Assign"
  op: "Assign"
  input: "Variable"
  input: "zeros_2"
  attr {
    key: "T"
    value {
      type: DT_FLOAT
    }
  }
  attr {
    key: "_class"
    value {
      list {
        s: "loc:@Variable"
      }
    }
  }
  attr {
    key: "use_locking"
    value {
      b: true
    }
  }
  attr {
    key: "validate_shape"
    value {
      b: true
    }
  }
}
node {
  name: "Variable/read"
  op: "Identity"
  input: "Variable"
  attr {
    key: "T"
    value {
      type: DT_FLOAT
    }
  }
  attr {
    key: "_class"
    value {
      list {
        s: "loc:@Variable"
      }
    }
  }
}
node {
  name: "Variable_1/initial_value"
  op: "Const"
  attr {
    key: "dtype"
    value {
      type: DT_FLOAT
    }
  }
  attr {
    key: "value"
    value {
      tensor {
        dtype: DT_FLOAT
        tensor_shape {
          dim {
            size: 120
          }
        }
        tensor_content: "\000\000\000\000\000\000\000\000\000\000\000\000\000\000\000\000\000\000\000\000\000\000\000\000\000\000\000\000\000\000\000\000\000\000\000\000\000\000\000\000\000\000\000\000\000\000\000\000\000\000\000\000\000\000\000\000\000\000\000\000\000\000\000\000\000\000\000\000\000\000\000\000\000\000\000\000\000\000\000\000\000\000\000\000\000\000\000\000\000\000\000\000\000\000\000\000\000\000\000\000\000\000\000\000\000\000\000\000\000\000\000\000\000\000\000\000\000\000\000\000\000\000\000\000\000\000\000\000\000\000\000\000\000\000\000\000\000\000\000\000\000\000\000\000\000\000\000\000\000\000\000\000\000\000\000\000\000\000\000\000\000\000\000\000\000\000\000\000\000\000\000\000\000\000\000\000\000\000\000\000\000\000\000\000\000\000\000\000\000\000\000\000\000\000\000\000\000\000\000\000\000\000\000\000\000\000\000\000\000\000\000\000\000\000\000\000\000\000\000\000\000\000\000\000\000\000\000\000\000\000\000\000\000\000\000\000\000\000\000\000\000\000\000\000\000\000\000\000\000\000\000\000\000\000\000\000\000\000\000\000\000\000\000\000\000\000\000\000\000\000\000\000\000\000\000\000\000\000\000\000\000\000\000\000\000\000\000\000\000\000\000\000\000\000\000\000\000\000\000\000\000\000\000\000\000\000\000\000\000\000\000\000\000\000\000\000\000\000\000\000\000\000\000\000\000\000\000\000\000\000\000\000\000\000\000\000\000\000\000\000\000\000\000\000\000\000\000\000\000\000\000\000\000\000\000\000\000\000\000\000\000\000\000\000\000\000\000\000\000\000\000\000\000\000\000\000\000\000\000\000\000\000\000\000\000\000\000\000\000\000\000\000\000\000\000\000\000\000\000\000\000\000\000\000\000\000\000\000\000\000\000\000\000\000\000\000\000\000\000\000\000\000\000\000\000\000\000\000\000\000\000\000\000\000\000\000\000\000\000\000\000\000\000\000\000\000\000\000\000\000\000\000\000\000\000\000\000\000\000\000\000\000\000\000\000\000\000\000\000\000\000\000\000\000\000\000\000\000\000\000"
      }
    }
  }
}
node {
  name: "Variable_1"
  op: "VariableV2"
  attr {
    key: "container"
    value {
      s: ""
    }
  }
  attr {
    key: "dtype"
    value {
      type: DT_FLOAT
    }
  }
  attr {
    key: "shape"
    value {
      shape {
        dim {
          size: 120
        }
      }
    }
  }
  attr {
    key: "shared_name"
    value {
      s: ""
    }
  }
}
node {
  name: "Variable_1/Assign"
  op: "Assign"
  input: "Variable_1"
  input: "Variable_1/initial_value"
  attr {
    key: "T"
    value {
      type: DT_FLOAT
    }
  }
  attr {
    key: "_class"
    value {
      list {
        s: "loc:@Variable_1"
      }
    }
  }
  attr {
    key: "use_locking"
    value {
      b: true
    }
  }
  attr {
    key: "validate_shape"
    value {
      b: true
    }
  }
}
node {
  name: "Variable_1/read"
  op: "Identity"
  input: "Variable_1"
  attr {
    key: "T"
    value {
      type: DT_FLOAT
    }
  }
  attr {
    key: "_class"
    value {
      list {
        s: "loc:@Variable_1"
      }
    }
  }
}
node {
  name: "Variable_2/initial_value"
  op: "Const"
  attr {
    key: "dtype"
    value {
      type: DT_FLOAT
    }
  }
  attr {
    key: "value"
    value {
      tensor {
        dtype: DT_FLOAT
        tensor_shape {
          dim {
            size: 120
          }
        }
        tensor_content: "\000\000\200?\000\000\200?\000\000\200?\000\000\200?\000\000\200?\000\000\200?\000\000\200?\000\000\200?\000\000\200?\000\000\200?\000\000\200?\000\000\200?\000\000\200?\000\000\200?\000\000\200?\000\000\200?\000\000\200?\000\000\200?\000\000\200?\000\000\200?\000\000\200?\000\000\200?\000\000\200?\000\000\200?\000\000\200?\000\000\200?\000\000\200?\000\000\200?\000\000\200?\000\000\200?\000\000\200?\000\000\200?\000\000\200?\000\000\200?\000\000\200?\000\000\200?\000\000\200?\000\000\200?\000\000\200?\000\000\200?\000\000\200?\000\000\200?\000\000\200?\000\000\200?\000\000\200?\000\000\200?\000\000\200?\000\000\200?\000\000\200?\000\000\200?\000\000\200?\000\000\200?\000\000\200?\000\000\200?\000\000\200?\000\000\200?\000\000\200?\000\000\200?\000\000\200?\000\000\200?\000\000\200?\000\000\200?\000\000\200?\000\000\200?\000\000\200?\000\000\200?\000\000\200?\000\000\200?\000\000\200?\000\000\200?\000\000\200?\000\000\200?\000\000\200?\000\000\200?\000\000\200?\000\000\200?\000\000\200?\000\000\200?\000\000\200?\000\000\200?\000\000\200?\000\000\200?\000\000\200?\000\000\200?\000\000\200?\000\000\200?\000\000\200?\000\000\200?\000\000\200?\000\000\200?\000\000\200?\000\000\200?\000\000\200?\000\000\200?\000\000\200?\000\000\200?\000\000\200?\000\000\200?\000\000\200?\000\000\200?\000\000\200?\000\000\200?\000\000\200?\000\000\200?\000\000\200?\000\000\200?\000\000\200?\000\000\200?\000\000\200?\000\000\200?\000\000\200?\000\000\200?\000\000\200?\000\000\200?\000\000\200?\000\000\200?\000\000\200?\000\000\200?\000\000\200?\000\000\200?"
      }
    }
  }
}
node {
  name: "Variable_2"
  op: "VariableV2"
  attr {
    key: "container"
    value {
      s: ""
    }
  }
  attr {
    key: "dtype"
    value {
      type: DT_FLOAT
    }
  }
  attr {
    key: "shape"
    value {
      shape {
        dim {
          size: 120
        }
      }
    }
  }
  attr {
    key: "shared_name"
    value {
      s: ""
    }
  }
}
node {
  name: "Variable_2/Assign"
  op: "Assign"
  input: "Variable_2"
  input: "Variable_2/initial_value"
  attr {
    key: "T"
    value {
      type: DT_FLOAT
    }
  }
  attr {
    key: "_class"
    value {
      list {
        s: "loc:@Variable_2"
      }
    }
  }
  attr {
    key: "use_locking"
    value {
      b: true
    }
  }
  attr {
    key: "validate_shape"
    value {
      b: true
    }
  }
}
node {
  name: "Variable_2/read"
  op: "Identity"
  input: "Variable_2"
  attr {
    key: "T"
    value {
      type: DT_FLOAT
    }
  }
  attr {
    key: "_class"
    value {
      list {
        s: "loc:@Variable_2"
      }
    }
  }
}
node {
  name: "Variable_3/initial_value"
  op: "Const"
  attr {
    key: "dtype"
    value {
      type: DT_FLOAT
    }
  }
  attr {
    key: "value"
    value {
      tensor {
        dtype: DT_FLOAT
        tensor_shape {
          dim {
            size: 120
          }
        }
        tensor_content: "\000\000\000\000\000\000\000\000\000\000\000\000\000\000\000\000\000\000\000\000\000\000\000\000\000\000\000\000\000\000\000\000\000\000\000\000\000\000\000\000\000\000\000\000\000\000\000\000\000\000\000\000\000\000\000\000\000\000\000\000\000\000\000\000\000\000\000\000\000\000\000\000\000\000\000\000\000\000\000\000\000\000\000\000\000\000\000\000\000\000\000\000\000\000\000\000\000\000\000\000\000\000\000\000\000\000\000\000\000\000\000\000\000\000\000\000\000\000\000\000\000\000\000\000\000\000\000\000\000\000\000\000\000\000\000\000\000\000\000\000\000\000\000\000\000\000\000\000\000\000\000\000\000\000\000\000\000\000\000\000\000\000\000\000\000\000\000\000\000\000\000\000\000\000\000\000\000\000\000\000\000\000\000\000\000\000\000\000\000\000\000\000\000\000\000\000\000\000\000\000\000\000\000\000\000\000\000\000\000\000\000\000\000\000\000\000\000\000\000\000\000\000\000\000\000\000\000\000\000\000\000\000\000\000\000\000\000\000\000\000\000\000\000\000\000\000\000\000\000\000\000\000\000\000\000\000\000\000\000\000\000\000\000\000\000\000\000\000\000\000\000\000\000\000\000\000\000\000\000\000\000\000\000\000\000\000\000\000\000\000\000\000\000\000\000\000\000\000\000\000\000\000\000\000\000\000\000\000\000\000\000\000\000\000\000\000\000\000\000\000\000\000\000\000\000\000\000\000\000\000\000\000\000\000\000\000\000\000\000\000\000\000\000\000\000\000\000\000\000\000\000\000\000\000\000\000\000\000\000\000\000\000\000\000\000\000\000\000\000\000\000\000\000\000\000\000\000\000\000\000\000\000\000\000\000\000\000\000\000\000\000\000\000\000\000\000\000\000\000\000\000\000\000\000\000\000\000\000\000\000\000\000\000\000\000\000\000\000\000\000\000\000\000\000\000\000\000\000\000\000\000\000\000\000\000\000\000\000\000\000\000\000\000\000\000\000\000\000\000\000\000\000\000\000\000\000\000\000\000\000\000\000\000\000\000\000\000\000\000\000\000\000\000\000\000\000\000\000\000\000"
      }
    }
  }
}
node {
  name: "Variable_3"
  op: "VariableV2"
  attr {
    key: "container"
    value {
      s: ""
    }
  }
  attr {
    key: "dtype"
    value {
      type: DT_FLOAT
    }
  }
  attr {
    key: "shape"
    value {
      shape {
        dim {
          size: 120
        }
      }
    }
  }
  attr {
    key: "shared_name"
    value {
      s: ""
    }
  }
}
node {
  name: "Variable_3/Assign"
  op: "Assign"
  input: "Variable_3"
  input: "Variable_3/initial_value"
  attr {
    key: "T"
    value {
      type: DT_FLOAT
    }
  }
  attr {
    key: "_class"
    value {
      list {
        s: "loc:@Variable_3"
      }
    }
  }
  attr {
    key: "use_locking"
    value {
      b: true
    }
  }
  attr {
    key: "validate_shape"
    value {
      b: true
    }
  }
}
node {
  name: "Variable_3/read"
  op: "Identity"
  input: "Variable_3"
  attr {
    key: "T"
    value {
      type: DT_FLOAT
    }
  }
  attr {
    key: "_class"
    value {
      list {
        s: "loc:@Variable_3"
      }
    }
  }
}
node {
  name: "resonate_weights/Initializer/Const"
  op: "Const"
  attr {
    key: "_class"
    value {
      list {
        s: "loc:@resonate_weights"
      }
    }
  }
  attr {
    key: "dtype"
    value {
      type: DT_FLOAT
    }
  }
  attr {
    key: "value"
    value {
      tensor {
        dtype: DT_FLOAT
        tensor_shape {
          dim {
            size: 120
          }
          dim {
            size: 120
          }
        }
        tensor_content: "\000\000\000\000\000\000\000\000\000\000\000\000\000\000\000\000\000\000\000\000\000\000\000\000\000\000\000\000\000\000\000\000\000\000\000\000\000\000\000\000\000\000\000\000\000\000\000\000\000\000\000?\000\000\000\000\000\000\000\000\000\000\000\000\000\000\000\000\000\000\000\000\000\000\000\000\\\376\243>\000\000\000\000\000\000\000\000\000\000\000\000\000\000\000\000\000\000\200>\000\000\000\000\000\000\000\000\000\000\000\000\260\275\024>\000\000\000\000\000\000\000\000\\\376#>\000\000\000\000\000\000\000\000 Q\\=\000\000\000\000\000\000\000>\000\000\000\000\275\302\321=\000\000\000\000\260\275\224=\000\000\000\000\215\n\035;\\\376\243=\337\302n<\000\000\000\000 Q\334<\213\377P=\000\000\200=\333\017Y=\275\302Q=+\333L=\260\275\024=s!\242<!\303\232<\000\000\000\000\000\000\000\000\000\000\000\000\000\000\000\000\000\000\000\000\000\000\000\000\000\000\000\000\000\000\000\000\000\000\000\000\000\000\000\000\000\000\000\000\000\000\000\000\000\000\000\000\000\000\000\000\000\000\000\000\000\000\000\000\000\000\000\000\000\000\000\000\000\000\000\000\000\000\000\000\000\000\000\000\000\000\000\000\000\000\000\000\000\000\000\000\000\000\000\000\000\000\000\000\000\000\000\000\000\000\000\000\000\000\000\000\000\000\000\000\000\000\000\000\000\000\000\000\000\000\000\000\000\000\000\000\000\000\000\000\000\000\000\000\000\000\000\000\000\000\000\000\000\000\000\000\000\000\000\000\000\000\000\000\000\000\000\000\000\000\000\000\000\000\000\000\000\000\000\000\000\000\000\000\000\000\000\000\000\000\000\000\000\000\000\000\000\000\000\000\000\000\000\000\000\000\000\000\000\000\000\000\000\000\000\000\000\000\000\000\000\000\000\000\000\000\000\000\000\000\000\000\000\000\000\000\000\000\000\000\000\000\000\000\000\000\000\000\000\000\000\000\000\000\000\000\000\000\000\000\000\000\000\000\000\000\000\000\000\000\000\000\000\000\000\000\000\000\000\000\000\000\000\000\000\000\000\000\000\000\000\000\000\000\000\000\000\000\000\000\000\000\000\000\000\000\000\000\000\000\000\000\000\000\000?\000\000\000\000\000\000\000\000\000\000\000\000\000\000\000\000\000\000\000\000\000\000\000\000\\\376\243>\000\000\000\000\000\000\000\000\000\000\000\000\000\000\000\000\000\000\200>\000\000\000\000\000\000\000\000\000\000\000\000\260\275\024>\000\000\000\000\000\000\000\000\\\376#>\000\000\000\000\000\000\000\000 Q\\=\000\000\000\000\000\000\000>\000\000\000\000\275\302\321=\000\000\000\000\260\275\224=\000\000\000\000\215\n\035;\\\376\243=\337\302n<\000\000\000\000 Q\334<\213\377P=\000\000\200=\333\017Y=\275\302Q=+\333L=\260\275\024=s!\242<!\303\232<\000\000\000\000\000\000\000\000\000\000\000\000\000\000\000\000\000\000\000\000\000\000\000\000\000\000\000\000\000\000\000\000\000\000\000\000\000\000\000\000\000\000\000\000\000\000\000\000\000\000\000\000\000\000\000\000\000\000\000\000\000\000\000\000\000\000\000\000\000\000\000\000\000\000\000\000\000\000\000\000\000\000\000\000\000\000\000\000\000\000\000\000\000\000\000\000\000\000\000\000\000\000\000\000\000\000\000\000\000\000\000\000\000\000\000\000\000\000\000\000\000\000\000\000\000\000\000\000\000\000\000\000\000\000\000\000\000\000\000\000\000\000\000\000\000\000\000\000\000\000\000\000\000\000\000\000\000\000\000\000\000\000\000\000\000\000\000\000\000\000\000\000\000\000\000\000\000\000\000\000\000\000\000\000\000\000\000\000\000\000\000\000\000\000\000\000\000\000\000\000\000\000\000\000\000\000\000\000\000\000\000\000\000\000\000\000\000\000\000\000\000\000\000\000\000\000\000\000\000\000\000\000\000\000\000\000\000\000\000\000\000\000\000\000\000\000\000\000\000\000\000\000\000\000\000\000\000\000\000\000\000\000\000\000\000\000\000\000\000\000\000\000\000\000\000\000\000\000\000\000\000\000\000\000\000\000\000\000\000\000\000\000\000\000\000\000\000\000\000\000\000\000\000\000\000\000\000\000\000\000\000\000\000\000\000?\000\000\000\000\000\000\000\000\000\000\000\000\000\000\000\000\000\000\000\000\000\000\000\000\\\376\243>\000\000\000\000\000\000\000\000\000\000\000\000\000\000\000\000\000\000\200>\000\000\000\000\000\000\000\000\000\000\000\000\260\275\024>\000\000\000\000\000\000\000\000\\\376#>\000\000\000\000\000\000\000\000 Q\\=\000\000\000\000\000\000\000>\000\000\000\000\275\302\321=\000\000\000\000\260\275\224=\000\000\000\000\215\n\035;\\\376\243=\337\302n<\000\000\000\000 Q\334<\213\377P=\000\000\200=\333\017Y=\275\302Q=+\333L=\260\275\024=s!\242<!\303\232<\000\000\000\000\000\000\000\000\000\000\000\000\000\000\000\000\000\000\000\000\000\000\000\000\000\000\000\000\000\000\000\000\000\000\000\000\000\000\000\000\000\000\000\000\000\000\000\000\000\000\000\000\000\000\000\000\000\000\000\000\000\000\000\000\000\000\000\000\000\000\000\000\000\000\000\000\000\000\000\000\000\000\000\000\000\000\000\000\000\000\000\000\000\000\000\000\000\000\000\000\000\000\000\000\000\000\000\000\000\000\000\000\000\000\000\000\000\000\000\000\000\000\000\000\000\000\000\000\000\000\000\000\000\000\000\000\000\000\000\000\000\000\000\000\000\000\000\000\000\000\000\000\000\000\000\000\000\000\000\000\000\000\000\000\000\000\000\000\000\000\000\000\000\000\000\000\000\000\000\000\000\000\000\000\000\000\000\000\000\000\000\000\000\000\000\000\000\000\000\000\000\000\000\000\000\000\000\000\000\000\000\000\000\000\000\000\000\000\000\000\000\000\000\000\000\000\000\000\000\000\000\000\000\000\000\000\000\000\000\000\000\000\000\000\000\000\000\000\000\000\000\000\000\000\000\000\000\000\000\000\000\000\000\000\000\000\000\000\000\000\000\000\000\000\000\000\000\000\000\000\000\000\000\000\000\000\000\000\000\000\000\000\000\000\000\000\000\000\000\000\000\000\000\000\000\000\000\000\000\000\000\000\000\000\000?\000\000\000\000\000\000\000\000\000\000\000\000\000\000\000\000\000\000\000\000\000\000\000\000\\\376\243>\000\000\000\000\000\000\000\000\000\000\000\000\000\000\000\000\000\000\200>\000\000\000\000\000\000\000\000\000\000\000\000\260\275\024>\000\000\000\000\000\000\000\000\\\376#>\000\000\000\000\000\000\000\000 Q\\=\000\000\000\000\000\000\000>\000\000\000\000\275\302\321=\000\000\000\000\260\275\224=\000\000\000\000\215\n\035;\\\376\243=\337\302n<\000\000\000\000 Q\334<\213\377P=\000\000\200=\333\017Y=\275\302Q=+\333L=\260\275\024=s!\242<!\303\232<\000\000\000\000\000\000\000\000\000\000\000\000\000\000\000\000\000\000\000\000\000\000\000\000\000\000\000\000\000\000\000\000\000\000\000\000\000\000\000\000\000\000\000\000\000\000\000\000\000\000\000\000\000\000\000\000\000\000\000\000\000\000\000\000\000\000\000\000\000\000\000\000\000\000\000\000\000\000\000\000\000\000\000\000\000\000\000\000\000\000\000\000\000\000\000\000\000\000\000\000\000\000\000\000\000\000\000\000\000\000\000\000\000\000\000\000\000\000\000\000\000\000\000\000\000\000\000\000\000\000\000\000\000\000\000\000\000\000\000\000\000\000\000\000\000\000\000\000\000\000\000\000\000\000\000\000\000\000\000\000\000\000\000\000\000\000\000\000\000\000\000\000\000\000\000\000\000\000\000\000\000\000\000\000\000\000\000\000\000\000\000\000\000\000\000\000\000\000\000\000\000\000\000\000\000\000\000\000\000\000\000\000\000\000\000\000\000\000\000\000\000\000\000\000\000\000\000\000\000\000\000\000\000\000\000\000\000\000\000\000\000\000\000\000\000\000\000\000\000\000\000\000\000\000\000\000\000\000\000\000\000\000\000\000\000\000\000\000\000\000\000\000\000\000\000\000\000\000\000\000\000\000\000\000\000\000\000\000\000\000\000\000\000\000\000\000\000\000\000\000\000\000\000\000\000\000\000\000\000\000\000\000\000\000\000?\000\000\000\000\000\000\000\000\000\000\000\000\000\000\000\000\000\000\000\000\000\000\000\000\\\376\243>\000\000\000\000\000\000\000\000\000\000\000\000\000\000\000\000\000\000\200>\000\000\000\000\000\000\000\000\000\000\000\000\260\275\024>\000\000\000\000\000\000\000\000\\\376#>\000\000\000\000\000\000\000\000 Q\\=\000\000\000\000\000\000\000>\000\000\000\000\275\302\321=\000\000\000\000\260\275\224=\000\000\000\000\215\n\035;\\\376\243=\337\302n<\000\000\000\000 Q\334<\213\377P=\000\000\200=\333\017Y=\275\302Q=+\333L=\260\275\024=s!\242<!\303\232<\000\000\000\000\000\000\000\000\000\000\000\000\000\000\000\000\000\000\000\000\000\000\000\000\000\000\000\000\000\000\000\000\000\000\000\000\000\000\000\000\000\000\000\000\000\000\000\000\000\000\000\000\000\000\000\000\000\000\000\000\000\000\000\000\000\000\000\000\000\000\000\000\000\000\000\000\000\000\000\000\000\000\000\000\000\000\000\000\000\000\000\000\000\000\000\000\000\000\000\000\000\000\000\000\000\000\000\000\000\000\000\000\000\000\000\000\000\000\000\000\000\000\000\000\000\000\000\000\000\000\000\000\000\000\000\000\000\000\000\000\000\000\000\000\000\000\000\000\000\000\000\000\000\000\000\000\000\000\000\000\000\000\000\000\000\000\000\000\000\000\000\000\000\000\000\000\000\000\000\000\000\000\000\000\000\000\000\000\000\000\000\000\000\000\000\000\000\000\000\000\000\000\000\000\000\000\000\000\000\000\000\000\000\000\000\000\000\000\000\000\000\000\000\000\000\000\000\000\000\000\000\000\000\000\000\000\000\000\000\000\000\000\000\000\000\000\000\000\000\000\000\000\000\000\000\000\000\000\000\000\000\000\000\000\000\000\000\000\000\000\000\000\000\000\000\000\000\000\000\000\000\000\000\000\000\000\000\000\000\000\000\000\000\000\000\000\000\000\000\000\000\000\000\000\000\000\000\000\000\000\000\000\000\000\000?\000\000\000\000\000\000\000\000\000\000\000\000\000\000\000\000\000\000\000\000\000\000\000\000\\\376\243>\000\000\000\000\000\000\000\000\000\000\000\000\000\000\000\000\000\000\200>\000\000\000\000\000\000\000\000\000\000\000\000\260\275\024>\000\000\000\000\000\000\000\000\\\376#>\000\000\000\000\000\000\000\000 Q\\=\000\000\000\000\000\000\000>\000\000\000\000\275\302\321=\000\000\000\000\260\275\224=\000\000\000\000\215\n\035;\\\376\243=\337\302n<\000\000\000\000 Q\334<\213\377P=\000\000\200=\333\017Y=\275\302Q=+\333L=\260\275\024=s!\242<!\303\232<\000\000\000\000\000\000\000\000\000\000\000\000\000\000\000\000\000\000\000\000\000\000\000\000\000\000\000\000\000\000\000\000\000\000\000\000\000\000\000\000\000\000\000\000\000\000\000\000\000\000\000\000\000\000\000\000\000\000\000\000\000\000\000\000\000\000\000\000\000\000\000\000\000\000\000\000\000\000\000\000\000\000\000\000\000\000\000\000\000\000\000\000\000\000\000\000\000\000\000\000\000\000\000\000\000\000\000\000\000\000\000\000\000\000\000\000\000\000\000\000\000\000\000\000\000\000\000\000\000\000\000\000\000\000\000\000\000\000\000\000\000\000\000\000\000\000\000\000\000\000\000\000\000\000\000\000\000\000\000\000\000\000\000\000\000\000\000\000\000\000\000\000\000\000\000\000\000\000\000\000\000\000\000\000\000\000\000\000\000\000\000\000\000\000\000\000\000\000\000\000\000\000\000\000\000\000\000\000\000\000\000\000\000\000\000\000\000\000\000\000\000\000\000\000\000\000\000\000\000\000\000\000\000\000\000\000\000\000\000\000\000\000\000\000\000\000\000\000\000\000\000\000\000\000\000\000\000\000\000\000\000\000\000\000\000\000\000\000\000\000\000\000\000\000\000\000\000\000\000\000\000\000\000\000\000\000\000\000\000\000\000\000\000\000\000\000\000\000\000\000\000\000\000\000\000\000\000\000\000\000\000\000\000\000\000?\000\000\000\000\000\000\000\000\000\000\000\000\000\000\000\000\000\000\000\000\000\000\000\000\\\376\243>\000\000\000\000\000\000\000\000\000\000\000\000\000\000\000\000\000\000\200>\000\000\000\000\000\000\000\000\000\000\000\000\260\275\024>\000\000\000\000\000\000\000\000\\\376#>\000\000\000\000\000\000\000\000 Q\\=\000\000\000\000\000\000\000>\000\000\000\000\275\302\321=\000\000\000\000\260\275\224=\000\000\000\000\215\n\035;\\\376\243=\337\302n<\000\000\000\000 Q\334<\213\377P=\000\000\200=\333\017Y=\275\302Q=+\333L=\260\275\024=s!\242<!\303\232<\000\000\000\000\000\000\000\000\000\000\000\000\000\000\000\000\000\000\000\000\000\000\000\000\000\000\000\000\000\000\000\000\000\000\000\000\000\000\000\000\000\000\000\000\000\000\000\000\000\000\000\000\000\000\000\000\000\000\000\000\000\000\000\000\000\000\000\000\000\000\000\000\000\000\000\000\000\000\000\000\000\000\000\000\000\000\000\000\000\000\000\000\000\000\000\000\000\000\000\000\000\000\000\000\000\000\000\000\000\000\000\000\000\000\000\000\000\000\000\000\000\000\000\000\000\000\000\000\000\000\000\000\000\000\000\000\000\000\000\000\000\000\000\000\000\000\000\000\000\000\000\000\000\000\000\000\000\000\000\000\000\000\000\000\000\000\000\000\000\000\000\000\000\000\000\000\000\000\000\000\000\000\000\000\000\000\000\000\000\000\000\000\000\000\000\000\000\000\000\000\000\000\000\000\000\000\000\000\000\000\000\000\000\000\000\000\000\000\000\000\000\000\000\000\000\000\000\000\000\000\000\000\000\000\000\000\000\000\000\000\000\000\000\000\000\000\000\000\000\000\000\000\000\000\000\000\000\000\000\000\000\000\000\000\000\000\000\000\000\000\000\000\000\000\000\000\000\000\000\000\000\000\000\000\000\000\000\000\000\000\000\000\000\000\000\000\000\000\000\000\000\000\000\000\000\000\000\000\000\000\000\000\000\000\000?\000\000\000\000\000\000\000\000\000\000\000\000\000\000\000\000\000\000\000\000\000\000\000\000\\\376\243>\000\000\000\000\000\000\000\000\000\000\000\000\000\000\000\000\000\000\200>\000\000\000\000\000\000\000\000\000\000\000\000\260\275\024>\000\000\000\000\000\000\000\000\\\376#>\000\000\000\000\000\000\000\000 Q\\=\000\000\000\000\000\000\000>\000\000\000\000\275\302\321=\000\000\000\000\260\275\224=\000\000\000\000\215\n\035;\\\376\243=\337\302n<\000\000\000\000 Q\334<\213\377P=\000\000\200=\333\017Y=\275\302Q=+\333L=\260\275\024=s!\242<!\303\232<\000\000\000\000\000\000\000\000\000\000\000\000\000\000\000\000\000\000\000\000\000\000\000\000\000\000\000\000\000\000\000\000\000\000\000\000\000\000\000\000\000\000\000\000\000\000\000\000\000\000\000\000\000\000\000\000\000\000\000\000\000\000\000\000\000\000\000\000\000\000\000\000\000\000\000\000\000\000\000\000\000\000\000\000\000\000\000\000\000\000\000\000\000\000\000\000\000\000\000\000\000\000\000\000\000\000\000\000\000\000\000\000\000\000\000\000\000\000\000\000\000\000\000\000\000\000\000\000\000\000\000\000\000\000\000\000\000\000\000\000\000\000\000\000\000\000\000\000\000\000\000\000\000\000\000\000\000\000\000\000\000\000\000\000\000\000\000\000\000\000\000\000\000\000\000\000\000\000\000\000\000\000\000\000\000\000\000\000\000\000\000\000\000\000\000\000\000\000\000\000\000\000\000\000\000\000\000\000\000\000\000\000\000\000\000\000\000\000\000\000\000\000\000\000\000\000\000\000\000\000\000\000\000\000\000\000\000\000\000\000\000\000\000\000\000\000\000\000\000\000\000\000\000\000\000\000\000\000\000\000\000\000\000\000\000\000\000\000\000\000\000\000\000\000\000\000\000\000\000\000\000\000\000\000\000\000\000\000\000\000\000\000\000\000\000\000\000\000\000\000\000\000\000\000\000\000\000\000\000\000\000\000\000\000\000?\000\000\000\000\000\000\000\000\000\000\000\000\000\000\000\000\000\000\000\000\000\000\000\000\\\376\243>\000\000\000\000\000\000\000\000\000\000\000\000\000\000\000\000\000\000\200>\000\000\000\000\000\000\000\000\000\000\000\000\260\275\024>\000\000\000\000\000\000\000\000\\\376#>\000\000\000\000\000\000\000\000 Q\\=\000\000\000\000\000\000\000>\000\000\000\000\275\302\321=\000\000\000\000\260\275\224=\000\000\000\000\215\n\035;\\\376\243=\337\302n<\000\000\000\000 Q\334<\213\377P=\000\000\200=\333\017Y=\275\302Q=+\333L=\260\275\024=s!\242<!\303\232<\000\000\000\000\000\000\000\000\000\000\000\000\000\000\000\000\000\000\000\000\000\000\000\000\000\000\000\000\000\000\000\000\000\000\000\000\000\000\000\000\000\000\000\000\000\000\000\000\000\000\000\000\000\000\000\000\000\000\000\000\000\000\000\000\000\000\000\000\000\000\000\000\000\000\000\000\000\000\000\000\000\000\000\000\000\000\000\000\000\000\000\000\000\000\000\000\000\000\000\000\000\000\000\000\000\000\000\000\000\000\000\000\000\000\000\000\000\000\000\000\000\000\000\000\000\000\000\000\000\000\000\000\000\000\000\000\000\000\000\000\000\000\000\000\000\000\000\000\000\000\000\000\000\000\000\000\000\000\000\000\000\000\000\000\000\000\000\000\000\000\000\000\000\000\000\000\000\000\000\000\000\000\000\000\000\000\000\000\000\000\000\000\000\000\000\000\000\000\000\000\000\000\000\000\000\000\000\000\000\000\000\000\000\000\000\000\000\000\000\000\000\000\000\000\000\000\000\000\000\000\000\000\000\000\000\000\000\000\000\000\000\000\000\000\000\000\000\000\000\000\000\000\000\000\000\000\000\000\000\000\000\000\000\000\000\000\000\000\000\000\000\000\000\000\000\000\000\000\000\000\000\000\000\000\000\000\000\000\000\000\000\000\000\000\000\000\000\000\000\000\000\000\000\000\000\000\000\000\000\000\000\000\000\000\000?\000\000\000\000\000\000\000\000\000\000\000\000\000\000\000\000\000\000\000\000\000\000\000\000\\\376\243>\000\000\000\000\000\000\000\000\000\000\000\000\000\000\000\000\000\000\200>\000\000\000\000\000\000\000\000\000\000\000\000\260\275\024>\000\000\000\000\000\000\000\000\\\376#>\000\000\000\000\000\000\000\000 Q\\=\000\000\000\000\000\000\000>\000\000\000\000\275\302\321=\000\000\000\000\260\275\224=\000\000\000\000\215\n\035;\\\376\243=\337\302n<\000\000\000\000 Q\334<\213\377P=\000\000\200=\333\017Y=\275\302Q=+\333L=\260\275\024=s!\242<!\303\232<\000\000\000\000\000\000\000\000\000\000\000\000\000\000\000\000\000\000\000\000\000\000\000\000\000\000\000\000\000\000\000\000\000\000\000\000\000\000\000\000\000\000\000\000\000\000\000\000\000\000\000\000\000\000\000\000\000\000\000\000\000\000\000\000\000\000\000\000\000\000\000\000\000\000\000\000\000\000\000\000\000\000\000\000\000\000\000\000\000\000\000\000\000\000\000\000\000\000\000\000\000\000\000\000\000\000\000\000\000\000\000\000\000\000\000\000\000\000\000\000\000\000\000\000\000\000\000\000\000\000\000\000\000\000\000\000\000\000\000\000\000\000\000\000\000\000\000\000\000\000\000\000\000\000\000\000\000\000\000\000\000\000\000\000\000\000\000\000\000\000\000\000\000\000\000\000\000\000\000\000\000\000\000\000\000\000\000\000\000\000\000\000\000\000\000\000\000\000\000\000\000\000\000\000\000\000\000\000\000\000\000\000\000\000\000\000\000\000\000\000\000\000\000\000\000\000\000\000\000\000\000\000\000\000\000\000\000\000\000\000\000\000\000\000\000\000\000\000\000\000\000\000\000\000\000\000\000\000\000\000\000\000\000\000\000\000\000\000\000\000\000\000\000\000\000\000\000\000\000\000\000\000\000\000\000\000\000\000\000\000\000\000\000\000\000\000\000\000\000\000\000\000\000\000\000\000\000\000\000\000\000\000\000\000\000?\000\000\000\000\000\000\000\000\000\000\000\000\000\000\000\000\000\000\000\000\000\000\000\000\\\376\243>\000\000\000\000\000\000\000\000\000\000\000\000\000\000\000\000\000\000\200>\000\000\000\000\000\000\000\000\000\000\000\000\260\275\024>\000\000\000\000\000\000\000\000\\\376#>\000\000\000\000\000\000\000\000 Q\\=\000\000\000\000\000\000\000>\000\000\000\000\275\302\321=\000\000\000\000\260\275\224=\000\000\000\000\215\n\035;\\\376\243=\337\302n<\000\000\000\000 Q\334<\213\377P=\000\000\200=\333\017Y=\275\302Q=+\333L=\260\275\024=s!\242<!\303\232<\000\000\000\000\000\000\000\000\000\000\000\000\000\000\000\000\000\000\000\000\000\000\000\000\000\000\000\000\000\000\000\000\000\000\000\000\000\000\000\000\000\000\000\000\000\000\000\000\000\000\000\000\000\000\000\000\000\000\000\000\000\000\000\000\000\000\000\000\000\000\000\000\000\000\000\000\000\000\000\000\000\000\000\000\000\000\000\000\000\000\000\000\000\000\000\000\000\000\000\000\000\000\000\000\000\000\000\000\000\000\000\000\000\000\000\000\000\000\000\000\000\000\000\000\000\000\000\000\000\000\000\000\000\000\000\000\000\000\000\000\000\000\000\000\000\000\000\000\000\000\000\000\000\000\000\000\000\000\000\000\000\000\000\000\000\000\000\000\000\000\000\000\000\000\000\000\000\000\000\000\000\000\000\000\000\000\000\000\000\000\000\000\000\000\000\000\000\000\000\000\000\000\000\000\000\000\000\000\000\000\000\000\000\000\000\000\000\000\000\000\000\000\000\000\000\000\000\000\000\000\000\000\000\000\000\000\000\000\000\000\000\000\000\000\000\000\000\000\000\000\000\000\000\000\000\000\000\000\000\000\000\000\000\000\000\000\000\000\000\000\000\000\000\000\000\000\000\000\000\000\000\000\000\000\000\000\000\000\000\000\000\000\000\000\000\000\000\000\000\000\000\000\000\000\000\000\000\000\000\000\000\000\000\000\000?\000\000\000\000\000\000\000\000\000\000\000\000\000\000\000\000\000\000\000\000\000\000\000\000\\\376\243>\000\000\000\000\000\000\000\000\000\000\000\000\000\000\000\000\000\000\200>\000\000\000\000\000\000\000\000\000\000\000\000\260\275\024>\000\000\000\000\000\000\000\000\\\376#>\000\000\000\000\000\000\000\000 Q\\=\000\000\000\000\000\000\000>\000\000\000\000\275\302\321=\000\000\000\000\260\275\224=\000\000\000\000\215\n\035;\\\376\243=\337\302n<\000\000\000\000 Q\334<\213\377P=\000\000\200=\333\017Y=\275\302Q=+\333L=\260\275\024=s!\242<!\303\232<\000\000\000\000\000\000\000\000\000\000\000\000\000\000\000\000\000\000\000\000\000\000\000\000\000\000\000\000\000\000\000\000\000\000\000\000\000\000\000\000\000\000\000\000\000\000\000\000\000\000\000\000\000\000\000\000\000\000\000\000\000\000\000\000\000\000\000\000\000\000\000\000\000\000\000\000\000\000\000\000\000\000\000\000\000\000\000\000\000\000\000\000\000\000\000\000\000\000\000\000\000\000\000\000\000\000\000\000\000\000\000\000\000\000\000\000\000\000\000\000\000\000\000\000\000\000\000\000\000\000\000\000\000\000\000\000\000\000\000\000\000\000\000\000\000\000\000\000\000\000\000\000\000\000\000\000\000\000\000\000\000\000\000\000\000\000\000\000\000\000\000\000\000\000\000\000\000\000\000\000\000\000\000\000\000\000\000\000\000\000\000\000\000\000\000\000\000\000\000\000\000\000\000\000\000\000\000\000\000\000\000\000\000\000\000\000\000\000\000?\000\000\000\000\000\000\000\000\000\000\000\000\000\000\000\000\000\000\000\000\000\000\000\000\000\000\000\000\000\000\000\000\000\000\000\000\000\000\000\000\000\000\000\000\000\000\000\000\000\000\000\000\000\000\000\000\000\000\000\000\000\000\000\000\000\000\000\000\000\000\000\000\000\000\000\000\000\000\000\000\000\000\000\000\000\000\000\000\000\000\000\000\000\000\000?\000\000\000\000\000\000\000\000\000\000\000\000\000\000\000\000\000\000\000\000\000\000\000\000\\\376\243>\000\000\000\000\000\000\000\000\000\000\000\000\000\000\000\000\000\000\200>\000\000\000\000\000\000\000\000\000\000\000\000\260\275\024>\000\000\000\000\000\000\000\000\\\376#>\000\000\000\000\000\000\000\000 Q\\=\000\000\000\000\000\000\000>\000\000\000\000\275\302\321=\000\000\000\000\260\275\224=\000\000\000\000\215\n\035;\\\376\243=\337\302n<\000\000\000\000 Q\334<\213\377P=\000\000\200=\333\017Y=\275\302Q=+\333L=\260\275\024=s!\242<!\303\232<\000\000\000\000\000\000\000\000\000\000\000\000\000\000\000\000\000\000\000\000\000\000\000\000\000\000\000\000\000\000\000\000\000\000\000\000\000\000\000\000\000\000\000\000\000\000\000\000\000\000\000\000\000\000\000\000\000\000\000\000\000\000\000\000\000\000\000\000\000\000\000\000\000\000\000\000\000\000\000\000\000\000\000\000\000\000\000\000\000\000\000\000\000\000\000\000\000\000\000\000\000\000\000\000\000\000\000\000\000\000\000\000\000\000\000\000\000\000\000\000\000\000\000\000\000\000\000\000\000\000\000\000\000\000\000\000\000\000\000\000\000\000\000\000\000\000\000\000\000\000\000\000\000\000\000\000\000\000\000\000\000\000\000\000\000\000\000\000\000\000\000\000\000\000\000\000\000\000\000\000\000\000\000\000\000\000\000\000\000\000\000\000\000\000\000\000\000\000\000\000\000\000\000\000\000\000\000\000\000\000\000\000\000\000\000\000\000\000\000?\000\000\000\000\000\000\000\000\000\000\000\000\000\000\000\000\000\000\000\000\000\000\000\000\000\000\000\000\000\000\000\000\000\000\000\000\000\000\000\000\000\000\000\000\000\000\000\000\000\000\000\000\000\000\000\000\000\000\000\000\000\000\000\000\000\000\000\000\000\000\000\000\000\000\000\000\000\000\000\000\000\000\000\000\000\000\000\000\000\000\000\000\000\000\000?\000\000\000\000\000\000\000\000\000\000\000\000\000\000\000\000\000\000\000\000\000\000\000\000\\\376\243>\000\000\000\000\000\000\000\000\000\000\000\000\000\000\000\000\000\000\200>\000\000\000\000\000\000\000\000\000\000\000\000\260\275\024>\000\000\000\000\000\000\000\000\\\376#>\000\000\000\000\000\000\000\000 Q\\=\000\000\000\000\000\000\000>\000\000\000\000\275\302\321=\000\000\000\000\260\275\224=\000\000\000\000\215\n\035;\\\376\243=\337\302n<\000\000\000\000 Q\334<\213\377P=\000\000\200=\333\017Y=\275\302Q=+\333L=\260\275\024=s!\242<!\303\232<\000\000\000\000\000\000\000\000\000\000\000\000\000\000\000\000\000\000\000\000\000\000\000\000\000\000\000\000\000\000\000\000\000\000\000\000\000\000\000\000\000\000\000\000\000\000\000\000\000\000\000\000\000\000\000\000\000\000\000\000\000\000\000\000\000\000\000\000\000\000\000\000\000\000\000\000\000\000\000\000\000\000\000\000\000\000\000\000\000\000\000\000\000\000\000\000\000\000\000\000\000\000\000\000\000\000\000\000\000\000\000\000\000\000\000\000\000\000\000\000\000\000\000\000\000\000\000\000\000\000\000\000\000\000\000\000\000\000\000\000\000\000\000\000\000\000\000\000\000\000\000\000\000\000\000\000\000\000\000\000\000\000\000\000\000\000\000\000\000\000\000\000\000\000\000\000\000\000\000\000\000\000\000\000\000\000\000\000\000\000\000\000\000\000\000\000\000\000\000\000\000\000\000\000\000\000\000\000\000\000\000\000\000\000\000\000\000\000\000?\000\000\000\000\000\000\000\000\000\000\000\000\000\000\000\000\000\000\000\000\000\000\000\000\000\000\000\000\000\000\000\000\000\000\000\000\000\000\000\000\000\000\000\000\000\000\000\000\000\000\000\000\000\000\000\000\000\000\000\000\000\000\000\000\000\000\000\000\000\000\000\000\000\000\000\000\000\000\000\000\000\000\000\000\000\000\000\000\000\000\000\000\000\000\000?\000\000\000\000\000\000\000\000\000\000\000\000\000\000\000\000\000\000\000\000\000\000\000\000\\\376\243>\000\000\000\000\000\000\000\000\000\000\000\000\000\000\000\000\000\000\200>\000\000\000\000\000\000\000\000\000\000\000\000\260\275\024>\000\000\000\000\000\000\000\000\\\376#>\000\000\000\000\000\000\000\000 Q\\=\000\000\000\000\000\000\000>\000\000\000\000\275\302\321=\000\000\000\000\260\275\224=\000\000\000\000\215\n\035;\\\376\243=\337\302n<\000\000\000\000 Q\334<\213\377P=\000\000\200=\333\017Y=\275\302Q=+\333L=\260\275\024=s!\242<!\303\232<\000\000\000\000\000\000\000\000\000\000\000\000\000\000\000\000\000\000\000\000\000\000\000\000\000\000\000\000\000\000\000\000\000\000\000\000\000\000\000\000\000\000\000\000\000\000\000\000\000\000\000\000\000\000\000\000\000\000\000\000\000\000\000\000\000\000\000\000\000\000\000\000\000\000\000\000\000\000\000\000\000\000\000\000\000\000\000\000\000\000\000\000\000\000\000\000\000\000\000\000\000\000\000\000\000\000\000\000\000\000\000\000\000\000\000\000\000\000\000\000\000\000\000\000\000\000\000\000\000\000\000\000\000\000\000\000\000\000\000\000\000\000\000\000\000\000\000\000\000\000\000\000\000\000\000\000\000\000\000\000\000\000\000\000\000\000\000\000\000\000\000\000\000\000\000\000\000\000\000\000\000\000\000\000\000\000\000\000\000\000\000\000\000\000\000\000\000\000\000\000\000\000\000\000\000\000\000\000\000\000\000\000\000\000\000\000\000\000\000?\000\000\000\000\000\000\000\000\000\000\000\000\000\000\000\000\000\000\000\000\000\000\000\000\000\000\000\000\000\000\000\000\000\000\000\000\000\000\000\000\000\000\000\000\000\000\000\000\000\000\000\000\000\000\000\000\000\000\000\000\000\000\000\000\000\000\000\000\000\000\000\000\000\000\000\000\000\000\000\000\000\000\000\000\000\000\000\000\000\000\000\000\000\000\000?\000\000\000\000\000\000\000\000\000\000\000\000\000\000\000\000\000\000\000\000\000\000\000\000\\\376\243>\000\000\000\000\000\000\000\000\000\000\000\000\000\000\000\000\000\000\200>\000\000\000\000\000\000\000\000\000\000\000\000\260\275\024>\000\000\000\000\000\000\000\000\\\376#>\000\000\000\000\000\000\000\000 Q\\=\000\000\000\000\000\000\000>\000\000\000\000\275\302\321=\000\000\000\000\260\275\224=\000\000\000\000\215\n\035;\\\376\243=\337\302n<\000\000\000\000 Q\334<\213\377P=\000\000\200=\333\017Y=\275\302Q=+\333L=\260\275\024=s!\242<!\303\232<\000\000\000\000\000\000\000\000\000\000\000\000\000\000\000\000\000\000\000\000\000\000\000\000\000\000\000\000\000\000\000\000\000\000\000\000\000\000\000\000\000\000\000\000\000\000\000\000\000\000\000\000\000\000\000\000\000\000\000\000\000\000\000\000\000\000\000\000\000\000\000\000\000\000\000\000\000\000\000\000\000\000\000\000\000\000\000\000\000\000\000\000\000\000\000\000\000\000\000\000\000\000\000\000\000\000\000\000\000\000\000\000\000\000\000\000\000\000\000\000\000\000\000\000\000\000\000\000\000\000\000\000\000\000\000\000\000\000\000\000\000\000\000\000\000\000\000\000\000\000\000\000\000\000\000\000\000\000\000\000\000\000\000\000\000\000\000\000\000\000\000\000\000\000\000\000\000\000\000\000\000\000\000\000\000\000\000\000\000\000\000\000\000\000\000\000\000\000\000\000\000\000\000\000\000\000\000\000\000\000\000\000\000\000\000\000\000\000\000?\000\000\000\000\000\000\000\000\000\000\000\000\000\000\000\000\000\000\000\000\000\000\000\000\000\000\000\000\000\000\000\000\000\000\000\000\000\000\000\000\000\000\000\000\000\000\000\000\000\000\000\000\000\000\000\000\000\000\000\000\000\000\000\000\000\000\000\000\000\000\000\000\000\000\000\000\000\000\000\000\000\000\000\000\000\000\000\000\000\000\000\000\000\000\000?\000\000\000\000\000\000\000\000\000\000\000\000\000\000\000\000\000\000\000\000\000\000\000\000\\\376\243>\000\000\000\000\000\000\000\000\000\000\000\000\000\000\000\000\000\000\200>\000\000\000\000\000\000\000\000\000\000\000\000\260\275\024>\000\000\000\000\000\000\000\000\\\376#>\000\000\000\000\000\000\000\000 Q\\=\000\000\000\000\000\000\000>\000\000\000\000\275\302\321=\000\000\000\000\260\275\224=\000\000\000\000\215\n\035;\\\376\243=\337\302n<\000\000\000\000 Q\334<\213\377P=\000\000\200=\333\017Y=\275\302Q=+\333L=\260\275\024=s!\242<!\303\232<\000\000\000\000\000\000\000\000\000\000\000\000\000\000\000\000\000\000\000\000\000\000\000\000\000\000\000\000\000\000\000\000\000\000\000\000\000\000\000\000\000\000\000\000\000\000\000\000\000\000\000\000\000\000\000\000\000\000\000\000\000\000\000\000\000\000\000\000\000\000\000\000\000\000\000\000\000\000\000\000\000\000\000\000\000\000\000\000\000\000\000\000\000\000\000\000\000\000\000\000\000\000\000\000\000\000\000\000\000\000\000\000\000\000\000\000\000\000\000\000\000\000\000\000\000\000\000\000\000\000\000\000\000\000\000\000\000\000\000\000\000\000\000\000\000\000\000\000\000\000\000\000\000\000\000\000\000\000\000\000\000\000\000\000\000\000\000\000\000\000\000\000\000\000\000\000\000\000\000\000\000\000\000\000\000\000\000\000\000\000\000\000\000\000\000\000\000\000\000\000\000\000\000\000\000\000\000\000\000\000\000\000\000\000\000\000\000\000\000?\000\000\000\000\000\000\000\000\000\000\000\000\000\000\000\000\000\000\000\000\000\000\000\000\000\000\000\000\000\000\000\000\000\000\000\000\000\000\000\000\000\000\000\000\000\000\000\000\000\000\000\000\000\000\000\000\000\000\000\000\000\000\000\000\000\000\000\000\000\000\000\000\000\000\000\000\000\000\000\000\000\000\000\000\000\000\000\000\000\000\000\000\000\000\000?\000\000\000\000\000\000\000\000\000\000\000\000\000\000\000\000\000\000\000\000\000\000\000\000\\\376\243>\000\000\000\000\000\000\000\000\000\000\000\000\000\000\000\000\000\000\200>\000\000\000\000\000\000\000\000\000\000\000\000\260\275\024>\000\000\000\000\000\000\000\000\\\376#>\000\000\000\000\000\000\000\000 Q\\=\000\000\000\000\000\000\000>\000\000\000\000\275\302\321=\000\000\000\000\260\275\224=\000\000\000\000\215\n\035;\\\376\243=\337\302n<\000\000\000\000 Q\334<\213\377P=\000\000\200=\333\017Y=\275\302Q=+\333L=\260\275\024=s!\242<!\303\232<\000\000\000\000\000\000\000\000\000\000\000\000\000\000\000\000\000\000\000\000\000\000\000\000\000\000\000\000\000\000\000\000\000\000\000\000\000\000\000\000\000\000\000\000\000\000\000\000\000\000\000\000\000\000\000\000\000\000\000\000\000\000\000\000\000\000\000\000\000\000\000\000\000\000\000\000\000\000\000\000\000\000\000\000\000\000\000\000\000\000\000\000\000\000\000\000\000\000\000\000\000\000\000\000\000\000\000\000\000\000\000\000\000\000\000\000\000\000\000\000\000\000\000\000\000\000\000\000\000\000\000\000\000\000\000\000\000\000\000\000\000\000\000\000\000\000\000\000\000\000\000\000\000\000\000\000\000\000\000\000\000\000\000\000\000\000\000\000\000\000\000\000\000\000\000\000\000\000\000\000\000\000\000\000\000\000\000\000\000\000\000\000\000\000\000\000\000\000\000\000\000\000\000\000\000\000\000\000\000\000\000\000\000\000\000\000\000\000\000?\000\000\000\000\000\000\000\000\000\000\000\000\000\000\000\000\000\000\000\000\000\000\000\000\000\000\000\000\000\000\000\000\000\000\000\000\000\000\000\000\000\000\000\000\000\000\000\000\000\000\000\000\000\000\000\000\000\000\000\000\000\000\000\000\000\000\000\000\000\000\000\000\000\000\000\000\000\000\000\000\000\000\000\000\000\000\000\000\000\000\000\000\000\000\000?\000\000\000\000\000\000\000\000\000\000\000\000\000\000\000\000\000\000\000\000\000\000\000\000\\\376\243>\000\000\000\000\000\000\000\000\000\000\000\000\000\000\000\000\000\000\200>\000\000\000\000\000\000\000\000\000\000\000\000\260\275\024>\000\000\000\000\000\000\000\000\\\376#>\000\000\000\000\000\000\000\000 Q\\=\000\000\000\000\000\000\000>\000\000\000\000\275\302\321=\000\000\000\000\260\275\224=\000\000\000\000\215\n\035;\\\376\243=\337\302n<\000\000\000\000 Q\334<\213\377P=\000\000\200=\333\017Y=\275\302Q=+\333L=\260\275\024=s!\242<!\303\232<\000\000\000\000\000\000\000\000\000\000\000\000\000\000\000\000\000\000\000\000\000\000\000\000\000\000\000\000\000\000\000\000\000\000\000\000\000\000\000\000\000\000\000\000\000\000\000\000\000\000\000\000\000\000\000\000\000\000\000\000\000\000\000\000\000\000\000\000\000\000\000\000\000\000\000\000\000\000\000\000\000\000\000\000\000\000\000\000\000\000\000\000\000\000\000\000\000\000\000\000\000\000\000\000\000\000\000\000\000\000\000\000\000\000\000\000\000\000\000\000\000\000\000\000\000\000\000\000\000\000\000\000\000\000\000\000\000\000\000\000\000\000\000\000\000\000\000\000\000\000\000\000\000\000\000\000\000\000\000\000\000\000\000\000\000\000\000\000\000\000\000\000\000\000\000\000\000\000\000\000\000\000\000\000\000\000\000\000\\\376\243>\000\000\000\000\000\000\000\000\000\000\000\000\000\000\000\000\000\000\000\000\000\000\000\000\000\000\000?\000\000\000\000\000\000\000\000\000\000\000\000\000\000\000\000\000\000\000\000\000\000\000\000\000\000\000\000\000\000\000\000\000\000\000\000\000\000\000\000\000\000\000\000\000\000\000\000\000\000\000\000\000\000\000\000\000\000\000\000\000\000\000\000\000\000\000\000\000\000\000\000\000\000\000\000\000\000\000\000\000\000\000\000\000\000\000\000\000\000\000\000\000\000\000?\000\000\000\000\000\000\000\000\000\000\000\000\000\000\000\000\000\000\000\000\000\000\000\000\\\376\243>\000\000\000\000\000\000\000\000\000\000\000\000\000\000\000\000\000\000\200>\000\000\000\000\000\000\000\000\000\000\000\000\260\275\024>\000\000\000\000\000\000\000\000\\\376#>\000\000\000\000\000\000\000\000 Q\\=\000\000\000\000\000\000\000>\000\000\000\000\275\302\321=\000\000\000\000\260\275\224=\000\000\000\000\215\n\035;\\\376\243=\337\302n<\000\000\000\000 Q\334<\213\377P=\000\000\200=\333\017Y=\275\302Q=+\333L=\260\275\024=s!\242<!\303\232<\000\000\000\000\000\000\000\000\000\000\000\000\000\000\000\000\000\000\000\000\000\000\000\000\000\000\000\000\000\000\000\000\000\000\000\000\000\000\000\000\000\000\000\000\000\000\000\000\000\000\000\000\000\000\000\000\000\000\000\000\000\000\000\000\000\000\000\000\000\000\000\000\000\000\000\000\000\000\000\000\000\000\000\000\000\000\000\000\000\000\000\000\000\000\000\000\000\000\000\000\000\000\000\000\000\000\000\000\000\000\000\000\000\000\000\000\000\000\000\000\000\000\000\000\000\000\000\000\000\000\000\000\000\000\000\000\000\000\000\000\000\000\000\000\000\000\000\000\000\000\000\000\000\000\000\000\000\000\000\000\000\000\000\000\000\000\000\000\000\000\000\000\000\000\000\000\000\000\000\000\000\000\000\000\000\000\000\000\\\376\243>\000\000\000\000\000\000\000\000\000\000\000\000\000\000\000\000\000\000\000\000\000\000\000\000\000\000\000?\000\000\000\000\000\000\000\000\000\000\000\000\000\000\000\000\000\000\000\000\000\000\000\000\000\000\000\000\000\000\000\000\000\000\000\000\000\000\000\000\000\000\000\000\000\000\000\000\000\000\000\000\000\000\000\000\000\000\000\000\000\000\000\000\000\000\000\000\000\000\000\000\000\000\000\000\000\000\000\000\000\000\000\000\000\000\000\000\000\000\000\000\000\000\000?\000\000\000\000\000\000\000\000\000\000\000\000\000\000\000\000\000\000\000\000\000\000\000\000\\\376\243>\000\000\000\000\000\000\000\000\000\000\000\000\000\000\000\000\000\000\200>\000\000\000\000\000\000\000\000\000\000\000\000\260\275\024>\000\000\000\000\000\000\000\000\\\376#>\000\000\000\000\000\000\000\000 Q\\=\000\000\000\000\000\000\000>\000\000\000\000\275\302\321=\000\000\000\000\260\275\224=\000\000\000\000\215\n\035;\\\376\243=\337\302n<\000\000\000\000 Q\334<\213\377P=\000\000\200=\333\017Y=\275\302Q=+\333L=\260\275\024=s!\242<!\303\232<\000\000\000\000\000\000\000\000\000\000\000\000\000\000\000\000\000\000\000\000\000\000\000\000\000\000\000\000\000\000\000\000\000\000\000\000\000\000\000\000\000\000\000\000\000\000\000\000\000\000\000\000\000\000\000\000\000\000\000\000\000\000\000\000\000\000\000\000\000\000\000\000\000\000\000\000\000\000\000\000\000\000\000\000\000\000\000\000\000\000\000\000\000\000\000\000\000\000\000\000\000\000\000\000\000\000\000\000\000\000\000\000\000\000\000\000\000\000\000\000\000\000\000\000\000\000\000\000\000\000\000\000\000\000\000\000\000\000\000\000\000\000\000\000\000\000\000\000\000\000\000\000\000\000\000\000\000\000\000\000\000\000\000\000\000\000\000\000\000\000\000\000\000\000\000\000\000\000\000\000\000\000\000\000\000\000\000\000\\\376\243>\000\000\000\000\000\000\000\000\000\000\000\000\000\000\000\000\000\000\000\000\000\000\000\000\000\000\000?\000\000\000\000\000\000\000\000\000\000\000\000\000\000\000\000\000\000\000\000\000\000\000\000\000\000\000\000\000\000\000\000\000\000\000\000\000\000\000\000\000\000\000\000\000\000\000\000\000\000\000\000\000\000\000\000\000\000\000\000\000\000\000\000\000\000\000\000\000\000\000\000\000\000\000\000\000\000\000\000\000\000\000\000\000\000\000\000\000\000\000\000\000\000\000?\000\000\000\000\000\000\000\000\000\000\000\000\000\000\000\000\000\000\000\000\000\000\000\000\\\376\243>\000\000\000\000\000\000\000\000\000\000\000\000\000\000\000\000\000\000\200>\000\000\000\000\000\000\000\000\000\000\000\000\260\275\024>\000\000\000\000\000\000\000\000\\\376#>\000\000\000\000\000\000\000\000 Q\\=\000\000\000\000\000\000\000>\000\000\000\000\275\302\321=\000\000\000\000\260\275\224=\000\000\000\000\215\n\035;\\\376\243=\337\302n<\000\000\000\000 Q\334<\213\377P=\000\000\200=\333\017Y=\275\302Q=+\333L=\260\275\024=s!\242<!\303\232<\000\000\000\000\000\000\000\000\000\000\000\000\000\000\000\000\000\000\000\000\000\000\000\000\000\000\000\000\000\000\000\000\000\000\000\000\000\000\000\000\000\000\000\000\000\000\000\000\000\000\000\000\000\000\000\000\000\000\000\000\000\000\000\000\000\000\000\000\000\000\000\000\000\000\000\000\000\000\000\000\000\000\000\000\000\000\000\000\000\000\000\000\000\000\000\000\000\000\000\000\000\000\000\000\000\000\000\000\000\000\000\000\000\000\000\000\000\000\000\000\000\000\000\000\000\000\000\000\000\000\000\000\000\000\000\000\000\000\000\000\000\000\000\000\000\000\000\000\000\000\000\000\000\000\000\000\000\000\000\000\000\000\000\000\000\000\000\000\000\000\000\000\000\000\000\000\000\000\000\000\000\000\000\000\000\000\000\000\\\376\243>\000\000\000\000\000\000\000\000\000\000\000\000\000\000\000\000\000\000\000\000\000\000\000\000\000\000\000?\000\000\000\000\000\000\000\000\000\000\000\000\000\000\000\000\000\000\000\000\000\000\000\000\000\000\000\000\000\000\000\000\000\000\000\000\000\000\000\000\000\000\000\000\000\000\000\000\000\000\000\000\000\000\000\000\000\000\000\000\000\000\000\000\000\000\000\000\000\000\000\000\000\000\000\000\000\000\000\000\000\000\000\000\000\000\000\000\000\000\000\000\000\000\000?\000\000\000\000\000\000\000\000\000\000\000\000\000\000\000\000\000\000\000\000\000\000\000\000\\\376\243>\000\000\000\000\000\000\000\000\000\000\000\000\000\000\000\000\000\000\200>\000\000\000\000\000\000\000\000\000\000\000\000\260\275\024>\000\000\000\000\000\000\000\000\\\376#>\000\000\000\000\000\000\000\000 Q\\=\000\000\000\000\000\000\000>\000\000\000\000\275\302\321=\000\000\000\000\260\275\224=\000\000\000\000\215\n\035;\\\376\243=\337\302n<\000\000\000\000 Q\334<\213\377P=\000\000\200=\333\017Y=\275\302Q=+\333L=\260\275\024=s!\242<!\303\232<\000\000\000\000\000\000\000\000\000\000\000\000\000\000\000\000\000\000\000\000\000\000\000\000\000\000\000\000\000\000\000\000\000\000\000\000\000\000\000\000\000\000\000\000\000\000\000\000\000\000\000\000\000\000\000\000\000\000\000\000\000\000\000\000\000\000\000\000\000\000\000\000\000\000\000\000\000\000\000\000\000\000\000\000\000\000\000\000\000\000\000\000\000\000\000\000\000\000\000\000\000\000\000\000\000\000\000\000\000\000\000\000\000\000\000\000\000\000\000\000\000\000\000\000\000\000\000\000\000\000\000\000\000\000\000\000\000\000\000\000\000\000\000\000\000\000\000\000\000\000\000\000\000\000\000\000\000\000\000\000\000\000\000\000\000\000\000\000\000\000\000\000\000\000\000\000\000\000\000\000\000\000\000\000\000\000\000\000\\\376\243>\000\000\000\000\000\000\000\000\000\000\000\000\000\000\000\000\000\000\000\000\000\000\000\000\000\000\000?\000\000\000\000\000\000\000\000\000\000\000\000\000\000\000\000\000\000\000\000\000\000\000\000\000\000\000\000\000\000\000\000\000\000\000\000\000\000\000\000\000\000\000\000\000\000\000\000\000\000\000\000\000\000\000\000\000\000\000\000\000\000\000\000\000\000\000\000\000\000\000\000\000\000\000\000\000\000\000\000\000\000\000\000\000\000\000\000\000\000\000\000\000\000\000?\000\000\000\000\000\000\000\000\000\000\000\000\000\000\000\000\000\000\000\000\000\000\000\000\\\376\243>\000\000\000\000\000\000\000\000\000\000\000\000\000\000\000\000\000\000\200>\000\000\000\000\000\000\000\000\000\000\000\000\260\275\024>\000\000\000\000\000\000\000\000\\\376#>\000\000\000\000\000\000\000\000 Q\\=\000\000\000\000\000\000\000>\000\000\000\000\275\302\321=\000\000\000\000\260\275\224=\000\000\000\000\215\n\035;\\\376\243=\337\302n<\000\000\000\000 Q\334<\213\377P=\000\000\200=\333\017Y=\275\302Q=+\333L=\260\275\024=s!\242<!\303\232<\000\000\000\000\000\000\000\000\000\000\000\000\000\000\000\000\000\000\000\000\000\000\000\000\000\000\000\000\000\000\000\000\000\000\000\000\000\000\000\000\000\000\000\000\000\000\000\000\000\000\000\000\000\000\000\000\000\000\000\000\000\000\000\000\000\000\000\000\000\000\000\000\000\000\000\000\000\000\000\000\000\000\000\000\000\000\000\000\000\000\000\000\000\000\000\000\000\000\000\000\000\000\000\000\000\000\000\000\000\000\000\000\000\000\000\000\000\000\000\000\000\000\000\000\000\000\000\000\000\000\000\000\000\000\000\000\000\000\000\000\000\000\000\000\000\000\000\000\000\000\000\000\000\000\000\000\000\000\000\000\000\000\000\000\000\000\000\000\000\000\200>\000\000\000\000\000\000\000\000\000\000\000\000\000\000\000\000\\\376\243>\000\000\000\000\000\000\000\000\000\000\000\000\000\000\000\000\000\000\000\000\000\000\000\000\000\000\000?\000\000\000\000\000\000\000\000\000\000\000\000\000\000\000\000\000\000\000\000\000\000\000\000\000\000\000\000\000\000\000\000\000\000\000\000\000\000\000\000\000\000\000\000\000\000\000\000\000\000\000\000\000\000\000\000\000\000\000\000\000\000\000\000\000\000\000\000\000\000\000\000\000\000\000\000\000\000\000\000\000\000\000\000\000\000\000\000\000\000\000\000\000\000\000?\000\000\000\000\000\000\000\000\000\000\000\000\000\000\000\000\000\000\000\000\000\000\000\000\\\376\243>\000\000\000\000\000\000\000\000\000\000\000\000\000\000\000\000\000\000\200>\000\000\000\000\000\000\000\000\000\000\000\000\260\275\024>\000\000\000\000\000\000\000\000\\\376#>\000\000\000\000\000\000\000\000 Q\\=\000\000\000\000\000\000\000>\000\000\000\000\275\302\321=\000\000\000\000\260\275\224=\000\000\000\000\215\n\035;\\\376\243=\337\302n<\000\000\000\000 Q\334<\213\377P=\000\000\200=\333\017Y=\275\302Q=+\333L=\260\275\024=s!\242<!\303\232<\000\000\000\000\000\000\000\000\000\000\000\000\000\000\000\000\000\000\000\000\000\000\000\000\000\000\000\000\000\000\000\000\000\000\000\000\000\000\000\000\000\000\000\000\000\000\000\000\000\000\000\000\000\000\000\000\000\000\000\000\000\000\000\000\000\000\000\000\000\000\000\000\000\000\000\000\000\000\000\000\000\000\000\000\000\000\000\000\000\000\000\000\000\000\000\000\000\000\000\000\000\000\000\000\000\000\000\000\000\000\000\000\000\000\000\000\000\000\000\000\000\000\000\000\000\000\000\000\000\000\000\000\000\000\000\000\000\000\000\000\000\000\000\000\000\000\000\000\000\000\000\000\000\000\000\000\000\000\000\000\000\000\000\000\000\000\000\000\000\000\200>\000\000\000\000\000\000\000\000\000\000\000\000\000\000\000\000\\\376\243>\000\000\000\000\000\000\000\000\000\000\000\000\000\000\000\000\000\000\000\000\000\000\000\000\000\000\000?\000\000\000\000\000\000\000\000\000\000\000\000\000\000\000\000\000\000\000\000\000\000\000\000\000\000\000\000\000\000\000\000\000\000\000\000\000\000\000\000\000\000\000\000\000\000\000\000\000\000\000\000\000\000\000\000\000\000\000\000\000\000\000\000\000\000\000\000\000\000\000\000\000\000\000\000\000\000\000\000\000\000\000\000\000\000\000\000\000\000\000\000\000\000\000?\000\000\000\000\000\000\000\000\000\000\000\000\000\000\000\000\000\000\000\000\000\000\000\000\\\376\243>\000\000\000\000\000\000\000\000\000\000\000\000\000\000\000\000\000\000\200>\000\000\000\000\000\000\000\000\000\000\000\000\260\275\024>\000\000\000\000\000\000\000\000\\\376#>\000\000\000\000\000\000\000\000 Q\\=\000\000\000\000\000\000\000>\000\000\000\000\275\302\321=\000\000\000\000\260\275\224=\000\000\000\000\215\n\035;\\\376\243=\337\302n<\000\000\000\000 Q\334<\213\377P=\000\000\200=\333\017Y=\275\302Q=+\333L=\260\275\024=s!\242<!\303\232<\000\000\000\000\000\000\000\000\000\000\000\000\000\000\000\000\000\000\000\000\000\000\000\000\000\000\000\000\000\000\000\000\000\000\000\000\000\000\000\000\000\000\000\000\000\000\000\000\000\000\000\000\000\000\000\000\000\000\000\000\000\000\000\000\000\000\000\000\000\000\000\000\000\000\000\000\000\000\000\000\000\000\000\000\000\000\000\000\000\000\000\000\000\000\000\000\000\000\000\000\000\000\000\000\000\000\000\000\000\000\000\000\000\000\000\000\000\000\000\000\000\000\000\000\000\000\000\000\000\000\000\000\000\000\000\000\000\000\000\000\000\000\000\000\000\000\000\000\000\000\000\000\000\000\000\000\000\000\000\000\000\000\000\000\000\000\000\000\000\000\200>\000\000\000\000\000\000\000\000\000\000\000\000\000\000\000\000\\\376\243>\000\000\000\000\000\000\000\000\000\000\000\000\000\000\000\000\000\000\000\000\000\000\000\000\000\000\000?\000\000\000\000\000\000\000\000\000\000\000\000\000\000\000\000\000\000\000\000\000\000\000\000\000\000\000\000\000\000\000\000\000\000\000\000\000\000\000\000\000\000\000\000\000\000\000\000\000\000\000\000\000\000\000\000\000\000\000\000\000\000\000\000\000\000\000\000\000\000\000\000\000\000\000\000\000\000\000\000\000\000\000\000\000\000\000\000\000\000\000\000\000\000\000?\000\000\000\000\000\000\000\000\000\000\000\000\000\000\000\000\000\000\000\000\000\000\000\000\\\376\243>\000\000\000\000\000\000\000\000\000\000\000\000\000\000\000\000\000\000\200>\000\000\000\000\000\000\000\000\000\000\000\000\260\275\024>\000\000\000\000\000\000\000\000\\\376#>\000\000\000\000\000\000\000\000 Q\\=\000\000\000\000\000\000\000>\000\000\000\000\275\302\321=\000\000\000\000\260\275\224=\000\000\000\000\215\n\035;\\\376\243=\337\302n<\000\000\000\000 Q\334<\213\377P=\000\000\200=\333\017Y=\275\302Q=+\333L=\260\275\024=s!\242<!\303\232<\000\000\000\000\000\000\000\000\000\000\000\000\000\000\000\000\000\000\000\000\000\000\000\000\000\000\000\000\000\000\000\000\000\000\000\000\000\000\000\000\000\000\000\000\000\000\000\000\000\000\000\000\000\000\000\000\000\000\000\000\000\000\000\000\000\000\000\000\000\000\000\000\000\000\000\000\000\000\000\000\000\000\000\000\000\000\000\000\000\000\000\000\000\000\000\000\000\000\000\000\000\000\000\000\000\000\000\000\000\000\000\000\000\000\000\000\000\000\000\000\000\000\000\000\000\000\000\000\000\000\000\000\000\000\000\000\000\000\000\000\000\000\000\000\000\000\000\000\000\000\000\000\000\000\000\000\000\000\000\000\000\000\000\000\000\000\000\000\000\000\200>\000\000\000\000\000\000\000\000\000\000\000\000\000\000\000\000\\\376\243>\000\000\000\000\000\000\000\000\000\000\000\000\000\000\000\000\000\000\000\000\000\000\000\000\000\000\000?\000\000\000\000\000\000\000\000\000\000\000\000\000\000\000\000\000\000\000\000\000\000\000\000\000\000\000\000\000\000\000\000\000\000\000\000\000\000\000\000\000\000\000\000\000\000\000\000\000\000\000\000\000\000\000\000\000\000\000\000\000\000\000\000\000\000\000\000\000\000\000\000\000\000\000\000\000\000\000\000\000\000\000\000\000\000\000\000\000\000\000\000\000\000\000?\000\000\000\000\000\000\000\000\000\000\000\000\000\000\000\000\000\000\000\000\000\000\000\000\\\376\243>\000\000\000\000\000\000\000\000\000\000\000\000\000\000\000\000\000\000\200>\000\000\000\000\000\000\000\000\000\000\000\000\260\275\024>\000\000\000\000\000\000\000\000\\\376#>\000\000\000\000\000\000\000\000 Q\\=\000\000\000\000\000\000\000>\000\000\000\000\275\302\321=\000\000\000\000\260\275\224=\000\000\000\000\215\n\035;\\\376\243=\337\302n<\000\000\000\000 Q\334<\213\377P=\000\000\200=\333\017Y=\275\302Q=+\333L=\260\275\024=s!\242<!\303\232<\000\000\000\000\000\000\000\000\000\000\000\000\000\000\000\000\000\000\000\000\000\000\000\000\000\000\000\000\000\000\000\000\000\000\000\000\000\000\000\000\000\000\000\000\000\000\000\000\000\000\000\000\000\000\000\000\000\000\000\000\000\000\000\000\000\000\000\000\000\000\000\000\000\000\000\000\000\000\000\000\000\000\000\000\000\000\000\000\000\000\000\000\000\000\000\000\000\000\000\000\000\000\000\000\000\000\000\000\000\000\000\000\000\000\000\000\000\000\000\000\000\000\000\000\000\000\000\000\000\000\000\000\000\000\000\000\000\000\000\000\000\000\000\000\000\000\000\000\000\000\000\000\260\275\024>\000\000\000\000\000\000\000\000\000\000\000\000\000\000\200>\000\000\000\000\000\000\000\000\000\000\000\000\000\000\000\000\\\376\243>\000\000\000\000\000\000\000\000\000\000\000\000\000\000\000\000\000\000\000\000\000\000\000\000\000\000\000?\000\000\000\000\000\000\000\000\000\000\000\000\000\000\000\000\000\000\000\000\000\000\000\000\000\000\000\000\000\000\000\000\000\000\000\000\000\000\000\000\000\000\000\000\000\000\000\000\000\000\000\000\000\000\000\000\000\000\000\000\000\000\000\000\000\000\000\000\000\000\000\000\000\000\000\000\000\000\000\000\000\000\000\000\000\000\000\000\000\000\000\000\000\000\000?\000\000\000\000\000\000\000\000\000\000\000\000\000\000\000\000\000\000\000\000\000\000\000\000\\\376\243>\000\000\000\000\000\000\000\000\000\000\000\000\000\000\000\000\000\000\200>\000\000\000\000\000\000\000\000\000\000\000\000\260\275\024>\000\000\000\000\000\000\000\000\\\376#>\000\000\000\000\000\000\000\000 Q\\=\000\000\000\000\000\000\000>\000\000\000\000\275\302\321=\000\000\000\000\260\275\224=\000\000\000\000\215\n\035;\\\376\243=\337\302n<\000\000\000\000 Q\334<\213\377P=\000\000\200=\333\017Y=\275\302Q=+\333L=\260\275\024=s!\242<!\303\232<\000\000\000\000\000\000\000\000\000\000\000\000\000\000\000\000\000\000\000\000\000\000\000\000\000\000\000\000\000\000\000\000\000\000\000\000\000\000\000\000\000\000\000\000\000\000\000\000\000\000\000\000\000\000\000\000\000\000\000\000\000\000\000\000\000\000\000\000\000\000\000\000\000\000\000\000\000\000\000\000\000\000\000\000\000\000\000\000\000\000\000\000\000\000\000\000\000\000\000\000\000\000\000\000\000\000\000\000\000\000\000\000\000\000\000\000\000\000\000\000\000\000\000\000\000\000\000\000\000\000\000\000\000\000\000\000\000\000\000\000\000\000\000\000\000\000\000\000\000\000\000\000\260\275\024>\000\000\000\000\000\000\000\000\000\000\000\000\000\000\200>\000\000\000\000\000\000\000\000\000\000\000\000\000\000\000\000\\\376\243>\000\000\000\000\000\000\000\000\000\000\000\000\000\000\000\000\000\000\000\000\000\000\000\000\000\000\000?\000\000\000\000\000\000\000\000\000\000\000\000\000\000\000\000\000\000\000\000\000\000\000\000\000\000\000\000\000\000\000\000\000\000\000\000\000\000\000\000\000\000\000\000\000\000\000\000\000\000\000\000\000\000\000\000\000\000\000\000\000\000\000\000\000\000\000\000\000\000\000\000\000\000\000\000\000\000\000\000\000\000\000\000\000\000\000\000\000\000\000\000\000\000\000?\000\000\000\000\000\000\000\000\000\000\000\000\000\000\000\000\000\000\000\000\000\000\000\000\\\376\243>\000\000\000\000\000\000\000\000\000\000\000\000\000\000\000\000\000\000\200>\000\000\000\000\000\000\000\000\000\000\000\000\260\275\024>\000\000\000\000\000\000\000\000\\\376#>\000\000\000\000\000\000\000\000 Q\\=\000\000\000\000\000\000\000>\000\000\000\000\275\302\321=\000\000\000\000\260\275\224=\000\000\000\000\215\n\035;\\\376\243=\337\302n<\000\000\000\000 Q\334<\213\377P=\000\000\200=\333\017Y=\275\302Q=+\333L=\260\275\024=s!\242<!\303\232<\000\000\000\000\000\000\000\000\000\000\000\000\000\000\000\000\000\000\000\000\000\000\000\000\000\000\000\000\000\000\000\000\000\000\000\000\000\000\000\000\000\000\000\000\000\000\000\000\000\000\000\000\000\000\000\000\000\000\000\000\000\000\000\000\000\000\000\000\000\000\000\000\000\000\000\000\000\000\000\000\000\000\000\000\000\000\000\000\000\000\000\000\000\000\000\000\000\000\000\000\000\000\000\000\000\000\000\000\000\000\000\000\000\000\000\000\000\000\000\000\000\000\000\000\000\000\000\000\000\000\000\000\000\000\000\000\000\000\000\000\000\000\000\000\000\000\000\000\000\000\000\000\260\275\024>\000\000\000\000\000\000\000\000\000\000\000\000\000\000\200>\000\000\000\000\000\000\000\000\000\000\000\000\000\000\000\000\\\376\243>\000\000\000\000\000\000\000\000\000\000\000\000\000\000\000\000\000\000\000\000\000\000\000\000\000\000\000?\000\000\000\000\000\000\000\000\000\000\000\000\000\000\000\000\000\000\000\000\000\000\000\000\000\000\000\000\000\000\000\000\000\000\000\000\000\000\000\000\000\000\000\000\000\000\000\000\000\000\000\000\000\000\000\000\000\000\000\000\000\000\000\000\000\000\000\000\000\000\000\000\000\000\000\000\000\000\000\000\000\000\000\000\000\000\000\000\000\000\000\000\000\000\000?\000\000\000\000\000\000\000\000\000\000\000\000\000\000\000\000\000\000\000\000\000\000\000\000\\\376\243>\000\000\000\000\000\000\000\000\000\000\000\000\000\000\000\000\000\000\200>\000\000\000\000\000\000\000\000\000\000\000\000\260\275\024>\000\000\000\000\000\000\000\000\\\376#>\000\000\000\000\000\000\000\000 Q\\=\000\000\000\000\000\000\000>\000\000\000\000\275\302\321=\000\000\000\000\260\275\224=\000\000\000\000\215\n\035;\\\376\243=\337\302n<\000\000\000\000 Q\334<\213\377P=\000\000\200=\333\017Y=\275\302Q=+\333L=\260\275\024=s!\242<!\303\232<\000\000\000\000\000\000\000\000\000\000\000\000\000\000\000\000\000\000\000\000\000\000\000\000\000\000\000\000\000\000\000\000\000\000\000\000\000\000\000\000\000\000\000\000\000\000\000\000\000\000\000\000\000\000\000\000\000\000\000\000\000\000\000\000\000\000\000\000\000\000\000\000\000\000\000\000\000\000\000\000\000\000\000\000\000\000\000\000\000\000\000\000\000\000\000\000\000\000\000\000\000\000\000\000\000\000\000\000\000\000\000\000\000\000\000\000\000\000\000\000\000\000\000\000\000\000\000\000\000\000\000\000\000\000\000\000\000\000\000\000\\\376#>\000\000\000\000\000\000\000\000\260\275\024>\000\000\000\000\000\000\000\000\000\000\000\000\000\000\200>\000\000\000\000\000\000\000\000\000\000\000\000\000\000\000\000\\\376\243>\000\000\000\000\000\000\000\000\000\000\000\000\000\000\000\000\000\000\000\000\000\000\000\000\000\000\000?\000\000\000\000\000\000\000\000\000\000\000\000\000\000\000\000\000\000\000\000\000\000\000\000\000\000\000\000\000\000\000\000\000\000\000\000\000\000\000\000\000\000\000\000\000\000\000\000\000\000\000\000\000\000\000\000\000\000\000\000\000\000\000\000\000\000\000\000\000\000\000\000\000\000\000\000\000\000\000\000\000\000\000\000\000\000\000\000\000\000\000\000\000\000\000?\000\000\000\000\000\000\000\000\000\000\000\000\000\000\000\000\000\000\000\000\000\000\000\000\\\376\243>\000\000\000\000\000\000\000\000\000\000\000\000\000\000\000\000\000\000\200>\000\000\000\000\000\000\000\000\000\000\000\000\260\275\024>\000\000\000\000\000\000\000\000\\\376#>\000\000\000\000\000\000\000\000 Q\\=\000\000\000\000\000\000\000>\000\000\000\000\275\302\321=\000\000\000\000\260\275\224=\000\000\000\000\215\n\035;\\\376\243=\337\302n<\000\000\000\000 Q\334<\213\377P=\000\000\200=\333\017Y=\275\302Q=+\333L=\260\275\024=s!\242<!\303\232<\000\000\000\000\000\000\000\000\000\000\000\000\000\000\000\000\000\000\000\000\000\000\000\000\000\000\000\000\000\000\000\000\000\000\000\000\000\000\000\000\000\000\000\000\000\000\000\000\000\000\000\000\000\000\000\000\000\000\000\000\000\000\000\000\000\000\000\000\000\000\000\000\000\000\000\000\000\000\000\000\000\000\000\000\000\000\000\000\000\000\000\000\000\000\000\000\000\000\000\000\000\000\000\000\000\000\000\000\000\000\000\000\000\000\000\000\000\000\000\000\000\000\000\000\000\000\000\000\000\000\000\000\000\000\000\000\000\000\000\000\\\376#>\000\000\000\000\000\000\000\000\260\275\024>\000\000\000\000\000\000\000\000\000\000\000\000\000\000\200>\000\000\000\000\000\000\000\000\000\000\000\000\000\000\000\000\\\376\243>\000\000\000\000\000\000\000\000\000\000\000\000\000\000\000\000\000\000\000\000\000\000\000\000\000\000\000?\000\000\000\000\000\000\000\000\000\000\000\000\000\000\000\000\000\000\000\000\000\000\000\000\000\000\000\000\000\000\000\000\000\000\000\000\000\000\000\000\000\000\000\000\000\000\000\000\000\000\000\000\000\000\000\000\000\000\000\000\000\000\000\000\000\000\000\000\000\000\000\000\000\000\000\000\000\000\000\000\000\000\000\000\000\000\000\000\000\000\000\000\000\000\000?\000\000\000\000\000\000\000\000\000\000\000\000\000\000\000\000\000\000\000\000\000\000\000\000\\\376\243>\000\000\000\000\000\000\000\000\000\000\000\000\000\000\000\000\000\000\200>\000\000\000\000\000\000\000\000\000\000\000\000\260\275\024>\000\000\000\000\000\000\000\000\\\376#>\000\000\000\000\000\000\000\000 Q\\=\000\000\000\000\000\000\000>\000\000\000\000\275\302\321=\000\000\000\000\260\275\224=\000\000\000\000\215\n\035;\\\376\243=\337\302n<\000\000\000\000 Q\334<\213\377P=\000\000\200=\333\017Y=\275\302Q=+\333L=\260\275\024=s!\242<!\303\232<\000\000\000\000\000\000\000\000\000\000\000\000\000\000\000\000\000\000\000\000\000\000\000\000\000\000\000\000\000\000\000\000\000\000\000\000\000\000\000\000\000\000\000\000\000\000\000\000\000\000\000\000\000\000\000\000\000\000\000\000\000\000\000\000\000\000\000\000\000\000\000\000\000\000\000\000\000\000\000\000\000\000\000\000\000\000\000\000\000\000\000\000\000\000\000\000\000\000\000\000\000\000\000\000\000\000\000\000\000\000\000\000\000\000\000\000\000\000\000\000\000\000\000\000\000\000\000\000\000\000\000\000\000\000\000\000\000\000\000\000\\\376#>\000\000\000\000\000\000\000\000\260\275\024>\000\000\000\000\000\000\000\000\000\000\000\000\000\000\200>\000\000\000\000\000\000\000\000\000\000\000\000\000\000\000\000\\\376\243>\000\000\000\000\000\000\000\000\000\000\000\000\000\000\000\000\000\000\000\000\000\000\000\000\000\000\000?\000\000\000\000\000\000\000\000\000\000\000\000\000\000\000\000\000\000\000\000\000\000\000\000\000\000\000\000\000\000\000\000\000\000\000\000\000\000\000\000\000\000\000\000\000\000\000\000\000\000\000\000\000\000\000\000\000\000\000\000\000\000\000\000\000\000\000\000\000\000\000\000\000\000\000\000\000\000\000\000\000\000\000\000\000\000\000\000\000\000\000\000\000\000\000?\000\000\000\000\000\000\000\000\000\000\000\000\000\000\000\000\000\000\000\000\000\000\000\000\\\376\243>\000\000\000\000\000\000\000\000\000\000\000\000\000\000\000\000\000\000\200>\000\000\000\000\000\000\000\000\000\000\000\000\260\275\024>\000\000\000\000\000\000\000\000\\\376#>\000\000\000\000\000\000\000\000 Q\\=\000\000\000\000\000\000\000>\000\000\000\000\275\302\321=\000\000\000\000\260\275\224=\000\000\000\000\215\n\035;\\\376\243=\337\302n<\000\000\000\000 Q\334<\213\377P=\000\000\200=\333\017Y=\275\302Q=+\333L=\260\275\024=s!\242<!\303\232<\000\000\000\000\000\000\000\000\000\000\000\000\000\000\000\000\000\000\000\000\000\000\000\000\000\000\000\000\000\000\000\000\000\000\000\000\000\000\000\000\000\000\000\000\000\000\000\000\000\000\000\000\000\000\000\000\000\000\000\000\000\000\000\000\000\000\000\000\000\000\000\000\000\000\000\000\000\000\000\000\000\000\000\000\000\000\000\000\000\000\000\000\000\000\000\000\000\000\000\000\000\000\000\000\000\000\000\000\000\000\000\000\000\000\000\000\000\000\000\000\000\000\000\000\000\000\000\000 Q\\=\000\000\000\000\000\000\000\000\\\376#>\000\000\000\000\000\000\000\000\260\275\024>\000\000\000\000\000\000\000\000\000\000\000\000\000\000\200>\000\000\000\000\000\000\000\000\000\000\000\000\000\000\000\000\\\376\243>\000\000\000\000\000\000\000\000\000\000\000\000\000\000\000\000\000\000\000\000\000\000\000\000\000\000\000?\000\000\000\000\000\000\000\000\000\000\000\000\000\000\000\000\000\000\000\000\000\000\000\000\000\000\000\000\000\000\000\000\000\000\000\000\000\000\000\000\000\000\000\000\000\000\000\000\000\000\000\000\000\000\000\000\000\000\000\000\000\000\000\000\000\000\000\000\000\000\000\000\000\000\000\000\000\000\000\000\000\000\000\000\000\000\000\000\000\000\000\000\000\000\000?\000\000\000\000\000\000\000\000\000\000\000\000\000\000\000\000\000\000\000\000\000\000\000\000\\\376\243>\000\000\000\000\000\000\000\000\000\000\000\000\000\000\000\000\000\000\200>\000\000\000\000\000\000\000\000\000\000\000\000\260\275\024>\000\000\000\000\000\000\000\000\\\376#>\000\000\000\000\000\000\000\000 Q\\=\000\000\000\000\000\000\000>\000\000\000\000\275\302\321=\000\000\000\000\260\275\224=\000\000\000\000\215\n\035;\\\376\243=\337\302n<\000\000\000\000 Q\334<\213\377P=\000\000\200=\333\017Y=\275\302Q=+\333L=\260\275\024=s!\242<!\303\232<\000\000\000\000\000\000\000\000\000\000\000\000\000\000\000\000\000\000\000\000\000\000\000\000\000\000\000\000\000\000\000\000\000\000\000\000\000\000\000\000\000\000\000\000\000\000\000\000\000\000\000\000\000\000\000\000\000\000\000\000\000\000\000\000\000\000\000\000\000\000\000\000\000\000\000\000\000\000\000\000\000\000\000\000\000\000\000\000\000\000\000\000\000\000\000\000\000\000\000\000\000\000\000\000\000\000\000\000\000\000\000\000\000\000\000\000\000\000\000\000\000\000\000\000\000\000\000\000 Q\\=\000\000\000\000\000\000\000\000\\\376#>\000\000\000\000\000\000\000\000\260\275\024>\000\000\000\000\000\000\000\000\000\000\000\000\000\000\200>\000\000\000\000\000\000\000\000\000\000\000\000\000\000\000\000\\\376\243>\000\000\000\000\000\000\000\000\000\000\000\000\000\000\000\000\000\000\000\000\000\000\000\000\000\000\000?\000\000\000\000\000\000\000\000\000\000\000\000\000\000\000\000\000\000\000\000\000\000\000\000\000\000\000\000\000\000\000\000\000\000\000\000\000\000\000\000\000\000\000\000\000\000\000\000\000\000\000\000\000\000\000\000\000\000\000\000\000\000\000\000\000\000\000\000\000\000\000\000\000\000\000\000\000\000\000\000\000\000\000\000\000\000\000\000\000\000\000\000\000\000\000?\000\000\000\000\000\000\000\000\000\000\000\000\000\000\000\000\000\000\000\000\000\000\000\000\\\376\243>\000\000\000\000\000\000\000\000\000\000\000\000\000\000\000\000\000\000\200>\000\000\000\000\000\000\000\000\000\000\000\000\260\275\024>\000\000\000\000\000\000\000\000\\\376#>\000\000\000\000\000\000\000\000 Q\\=\000\000\000\000\000\000\000>\000\000\000\000\275\302\321=\000\000\000\000\260\275\224=\000\000\000\000\215\n\035;\\\376\243=\337\302n<\000\000\000\000 Q\334<\213\377P=\000\000\200=\333\017Y=\275\302Q=+\333L=\260\275\024=s!\242<!\303\232<\000\000\000\000\000\000\000\000\000\000\000\000\000\000\000\000\000\000\000\000\000\000\000\000\000\000\000\000\000\000\000\000\000\000\000\000\000\000\000\000\000\000\000\000\000\000\000\000\000\000\000\000\000\000\000\000\000\000\000\000\000\000\000\000\000\000\000\000\000\000\000\000\000\000\000\000\000\000\000\000\000\000\000\000\000\000\000\000\000\000\000\000\000\000\000\000\000\000\000\000\000\000\000\000\000\000\000\000\000\000\000\000\000\000\000\000\000\000\000\000\000\000\000>\000\000\000\000 Q\\=\000\000\000\000\000\000\000\000\\\376#>\000\000\000\000\000\000\000\000\260\275\024>\000\000\000\000\000\000\000\000\000\000\000\000\000\000\200>\000\000\000\000\000\000\000\000\000\000\000\000\000\000\000\000\\\376\243>\000\000\000\000\000\000\000\000\000\000\000\000\000\000\000\000\000\000\000\000\000\000\000\000\000\000\000?\000\000\000\000\000\000\000\000\000\000\000\000\000\000\000\000\000\000\000\000\000\000\000\000\000\000\000\000\000\000\000\000\000\000\000\000\000\000\000\000\000\000\000\000\000\000\000\000\000\000\000\000\000\000\000\000\000\000\000\000\000\000\000\000\000\000\000\000\000\000\000\000\000\000\000\000\000\000\000\000\000\000\000\000\000\000\000\000\000\000\000\000\000\000\000?\000\000\000\000\000\000\000\000\000\000\000\000\000\000\000\000\000\000\000\000\000\000\000\000\\\376\243>\000\000\000\000\000\000\000\000\000\000\000\000\000\000\000\000\000\000\200>\000\000\000\000\000\000\000\000\000\000\000\000\260\275\024>\000\000\000\000\000\000\000\000\\\376#>\000\000\000\000\000\000\000\000 Q\\=\000\000\000\000\000\000\000>\000\000\000\000\275\302\321=\000\000\000\000\260\275\224=\000\000\000\000\215\n\035;\\\376\243=\337\302n<\000\000\000\000 Q\334<\213\377P=\000\000\200=\333\017Y=\275\302Q=+\333L=\260\275\024=s!\242<!\303\232<\000\000\000\000\000\000\000\000\000\000\000\000\000\000\000\000\000\000\000\000\000\000\000\000\000\000\000\000\000\000\000\000\000\000\000\000\000\000\000\000\000\000\000\000\000\000\000\000\000\000\000\000\000\000\000\000\000\000\000\000\000\000\000\000\000\000\000\000\000\000\000\000\000\000\000\000\000\000\000\000\000\000\000\000\000\000\000\000\000\000\000\000\000\000\000\000\000\000\000\000\000\000\000\000\000\000\000\000\000\000\000\000\000\000\000\000\000\000\000\000\000\000\000>\000\000\000\000 Q\\=\000\000\000\000\000\000\000\000\\\376#>\000\000\000\000\000\000\000\000\260\275\024>\000\000\000\000\000\000\000\000\000\000\000\000\000\000\200>\000\000\000\000\000\000\000\000\000\000\000\000\000\000\000\000\\\376\243>\000\000\000\000\000\000\000\000\000\000\000\000\000\000\000\000\000\000\000\000\000\000\000\000\000\000\000?\000\000\000\000\000\000\000\000\000\000\000\000\000\000\000\000\000\000\000\000\000\000\000\000\000\000\000\000\000\000\000\000\000\000\000\000\000\000\000\000\000\000\000\000\000\000\000\000\000\000\000\000\000\000\000\000\000\000\000\000\000\000\000\000\000\000\000\000\000\000\000\000\000\000\000\000\000\000\000\000\000\000\000\000\000\000\000\000\000\000\000\000\000\000\000?\000\000\000\000\000\000\000\000\000\000\000\000\000\000\000\000\000\000\000\000\000\000\000\000\\\376\243>\000\000\000\000\000\000\000\000\000\000\000\000\000\000\000\000\000\000\200>\000\000\000\000\000\000\000\000\000\000\000\000\260\275\024>\000\000\000\000\000\000\000\000\\\376#>\000\000\000\000\000\000\000\000 Q\\=\000\000\000\000\000\000\000>\000\000\000\000\275\302\321=\000\000\000\000\260\275\224=\000\000\000\000\215\n\035;\\\376\243=\337\302n<\000\000\000\000 Q\334<\213\377P=\000\000\200=\333\017Y=\275\302Q=+\333L=\260\275\024=s!\242<!\303\232<\000\000\000\000\000\000\000\000\000\000\000\000\000\000\000\000\000\000\000\000\000\000\000\000\000\000\000\000\000\000\000\000\000\000\000\000\000\000\000\000\000\000\000\000\000\000\000\000\000\000\000\000\000\000\000\000\000\000\000\000\000\000\000\000\000\000\000\000\000\000\000\000\000\000\000\000\000\000\000\000\000\000\000\000\000\000\000\000\000\000\000\000\000\000\000\000\000\000\000\000\000\000\000\000\000\000\000\000\000\000\000\000\275\302\321=\000\000\000\000\000\000\000>\000\000\000\000 Q\\=\000\000\000\000\000\000\000\000\\\376#>\000\000\000\000\000\000\000\000\260\275\024>\000\000\000\000\000\000\000\000\000\000\000\000\000\000\200>\000\000\000\000\000\000\000\000\000\000\000\000\000\000\000\000\\\376\243>\000\000\000\000\000\000\000\000\000\000\000\000\000\000\000\000\000\000\000\000\000\000\000\000\000\000\000?\000\000\000\000\000\000\000\000\000\000\000\000\000\000\000\000\000\000\000\000\000\000\000\000\000\000\000\000\000\000\000\000\000\000\000\000\000\000\000\000\000\000\000\000\000\000\000\000\000\000\000\000\000\000\000\000\000\000\000\000\000\000\000\000\000\000\000\000\000\000\000\000\000\000\000\000\000\000\000\000\000\000\000\000\000\000\000\000\000\000\000\000\000\000\000?\000\000\000\000\000\000\000\000\000\000\000\000\000\000\000\000\000\000\000\000\000\000\000\000\\\376\243>\000\000\000\000\000\000\000\000\000\000\000\000\000\000\000\000\000\000\200>\000\000\000\000\000\000\000\000\000\000\000\000\260\275\024>\000\000\000\000\000\000\000\000\\\376#>\000\000\000\000\000\000\000\000 Q\\=\000\000\000\000\000\000\000>\000\000\000\000\275\302\321=\000\000\000\000\260\275\224=\000\000\000\000\215\n\035;\\\376\243=\337\302n<\000\000\000\000 Q\334<\213\377P=\000\000\200=\333\017Y=\275\302Q=+\333L=\260\275\024=s!\242<!\303\232<\000\000\000\000\000\000\000\000\000\000\000\000\000\000\000\000\000\000\000\000\000\000\000\000\000\000\000\000\000\000\000\000\000\000\000\000\000\000\000\000\000\000\000\000\000\000\000\000\000\000\000\000\000\000\000\000\000\000\000\000\000\000\000\000\000\000\000\000\000\000\000\000\000\000\000\000\000\000\000\000\000\000\000\000\000\000\000\000\000\000\000\000\000\000\000\000\000\000\000\000\000\000\000\000\000\000\000\000\000\000\000\000\275\302\321=\000\000\000\000\000\000\000>\000\000\000\000 Q\\=\000\000\000\000\000\000\000\000\\\376#>\000\000\000\000\000\000\000\000\260\275\024>\000\000\000\000\000\000\000\000\000\000\000\000\000\000\200>\000\000\000\000\000\000\000\000\000\000\000\000\000\000\000\000\\\376\243>\000\000\000\000\000\000\000\000\000\000\000\000\000\000\000\000\000\000\000\000\000\000\000\000\000\000\000?\000\000\000\000\000\000\000\000\000\000\000\000\000\000\000\000\000\000\000\000\000\000\000\000\000\000\000\000\000\000\000\000\000\000\000\000\000\000\000\000\000\000\000\000\000\000\000\000\000\000\000\000\000\000\000\000\000\000\000\000\000\000\000\000\000\000\000\000\000\000\000\000\000\000\000\000\000\000\000\000\000\000\000\000\000\000\000\000\000\000\000\000\000\000\000?\000\000\000\000\000\000\000\000\000\000\000\000\000\000\000\000\000\000\000\000\000\000\000\000\\\376\243>\000\000\000\000\000\000\000\000\000\000\000\000\000\000\000\000\000\000\200>\000\000\000\000\000\000\000\000\000\000\000\000\260\275\024>\000\000\000\000\000\000\000\000\\\376#>\000\000\000\000\000\000\000\000 Q\\=\000\000\000\000\000\000\000>\000\000\000\000\275\302\321=\000\000\000\000\260\275\224=\000\000\000\000\215\n\035;\\\376\243=\337\302n<\000\000\000\000 Q\334<\213\377P=\000\000\200=\333\017Y=\275\302Q=+\333L=\260\275\024=s!\242<!\303\232<\000\000\000\000\000\000\000\000\000\000\000\000\000\000\000\000\000\000\000\000\000\000\000\000\000\000\000\000\000\000\000\000\000\000\000\000\000\000\000\000\000\000\000\000\000\000\000\000\000\000\000\000\000\000\000\000\000\000\000\000\000\000\000\000\000\000\000\000\000\000\000\000\000\000\000\000\000\000\000\000\000\000\000\000\000\000\000\000\000\000\000\000\000\000\000\000\000\000\000\000\000\000\000\000\260\275\224=\000\000\000\000\275\302\321=\000\000\000\000\000\000\000>\000\000\000\000 Q\\=\000\000\000\000\000\000\000\000\\\376#>\000\000\000\000\000\000\000\000\260\275\024>\000\000\000\000\000\000\000\000\000\000\000\000\000\000\200>\000\000\000\000\000\000\000\000\000\000\000\000\000\000\000\000\\\376\243>\000\000\000\000\000\000\000\000\000\000\000\000\000\000\000\000\000\000\000\000\000\000\000\000\000\000\000?\000\000\000\000\000\000\000\000\000\000\000\000\000\000\000\000\000\000\000\000\000\000\000\000\000\000\000\000\000\000\000\000\000\000\000\000\000\000\000\000\000\000\000\000\000\000\000\000\000\000\000\000\000\000\000\000\000\000\000\000\000\000\000\000\000\000\000\000\000\000\000\000\000\000\000\000\000\000\000\000\000\000\000\000\000\000\000\000\000\000\000\000\000\000\000?\000\000\000\000\000\000\000\000\000\000\000\000\000\000\000\000\000\000\000\000\000\000\000\000\\\376\243>\000\000\000\000\000\000\000\000\000\000\000\000\000\000\000\000\000\000\200>\000\000\000\000\000\000\000\000\000\000\000\000\260\275\024>\000\000\000\000\000\000\000\000\\\376#>\000\000\000\000\000\000\000\000 Q\\=\000\000\000\000\000\000\000>\000\000\000\000\275\302\321=\000\000\000\000\260\275\224=\000\000\000\000\215\n\035;\\\376\243=\337\302n<\000\000\000\000 Q\334<\213\377P=\000\000\200=\333\017Y=\275\302Q=+\333L=\260\275\024=s!\242<!\303\232<\000\000\000\000\000\000\000\000\000\000\000\000\000\000\000\000\000\000\000\000\000\000\000\000\000\000\000\000\000\000\000\000\000\000\000\000\000\000\000\000\000\000\000\000\000\000\000\000\000\000\000\000\000\000\000\000\000\000\000\000\000\000\000\000\000\000\000\000\000\000\000\000\000\000\000\000\000\000\000\000\000\000\000\000\000\000\000\000\000\000\000\000\000\000\000\000\000\000\000\000\000\000\000\000\260\275\224=\000\000\000\000\275\302\321=\000\000\000\000\000\000\000>\000\000\000\000 Q\\=\000\000\000\000\000\000\000\000\\\376#>\000\000\000\000\000\000\000\000\260\275\024>\000\000\000\000\000\000\000\000\000\000\000\000\000\000\200>\000\000\000\000\000\000\000\000\000\000\000\000\000\000\000\000\\\376\243>\000\000\000\000\000\000\000\000\000\000\000\000\000\000\000\000\000\000\000\000\000\000\000\000\000\000\000?\000\000\000\000\000\000\000\000\000\000\000\000\000\000\000\000\000\000\000\000\000\000\000\000\000\000\000\000\000\000\000\000\000\000\000\000\000\000\000\000\000\000\000\000\000\000\000\000\000\000\000\000\000\000\000\000\000\000\000\000\000\000\000\000\000\000\000\000\000\000\000\000\000\000\000\000\000\000\000\000\000\000\000\000\000\000\000\000\000\000\000\000\000\000\000?\000\000\000\000\000\000\000\000\000\000\000\000\000\000\000\000\000\000\000\000\000\000\000\000\\\376\243>\000\000\000\000\000\000\000\000\000\000\000\000\000\000\000\000\000\000\200>\000\000\000\000\000\000\000\000\000\000\000\000\260\275\024>\000\000\000\000\000\000\000\000\\\376#>\000\000\000\000\000\000\000\000 Q\\=\000\000\000\000\000\000\000>\000\000\000\000\275\302\321=\000\000\000\000\260\275\224=\000\000\000\000\215\n\035;\\\376\243=\337\302n<\000\000\000\000 Q\334<\213\377P=\000\000\200=\333\017Y=\275\302Q=+\333L=\260\275\024=s!\242<!\303\232<\000\000\000\000\000\000\000\000\000\000\000\000\000\000\000\000\000\000\000\000\000\000\000\000\000\000\000\000\000\000\000\000\000\000\000\000\000\000\000\000\000\000\000\000\000\000\000\000\000\000\000\000\000\000\000\000\000\000\000\000\000\000\000\000\000\000\000\000\000\000\000\000\000\000\000\000\000\000\000\000\000\000\000\000\000\000\000\000\000\000\000\000\000\000\000\000\215\n\035;\000\000\000\000\260\275\224=\000\000\000\000\275\302\321=\000\000\000\000\000\000\000>\000\000\000\000 Q\\=\000\000\000\000\000\000\000\000\\\376#>\000\000\000\000\000\000\000\000\260\275\024>\000\000\000\000\000\000\000\000\000\000\000\000\000\000\200>\000\000\000\000\000\000\000\000\000\000\000\000\000\000\000\000\\\376\243>\000\000\000\000\000\000\000\000\000\000\000\000\000\000\000\000\000\000\000\000\000\000\000\000\000\000\000?\000\000\000\000\000\000\000\000\000\000\000\000\000\000\000\000\000\000\000\000\000\000\000\000\000\000\000\000\000\000\000\000\000\000\000\000\000\000\000\000\000\000\000\000\000\000\000\000\000\000\000\000\000\000\000\000\000\000\000\000\000\000\000\000\000\000\000\000\000\000\000\000\000\000\000\000\000\000\000\000\000\000\000\000\000\000\000\000\000\000\000\000\000\000\000?\000\000\000\000\000\000\000\000\000\000\000\000\000\000\000\000\000\000\000\000\000\000\000\000\\\376\243>\000\000\000\000\000\000\000\000\000\000\000\000\000\000\000\000\000\000\200>\000\000\000\000\000\000\000\000\000\000\000\000\260\275\024>\000\000\000\000\000\000\000\000\\\376#>\000\000\000\000\000\000\000\000 Q\\=\000\000\000\000\000\000\000>\000\000\000\000\275\302\321=\000\000\000\000\260\275\224=\000\000\000\000\215\n\035;\\\376\243=\337\302n<\000\000\000\000 Q\334<\213\377P=\000\000\200=\333\017Y=\275\302Q=+\333L=\260\275\024=s!\242<!\303\232<\000\000\000\000\000\000\000\000\000\000\000\000\000\000\000\000\000\000\000\000\000\000\000\000\000\000\000\000\000\000\000\000\000\000\000\000\000\000\000\000\000\000\000\000\000\000\000\000\000\000\000\000\000\000\000\000\000\000\000\000\000\000\000\000\000\000\000\000\000\000\000\000\000\000\000\000\000\000\000\000\000\000\000\000\000\000\000\000\000\000\000\000\\\376\243=\215\n\035;\000\000\000\000\260\275\224=\000\000\000\000\275\302\321=\000\000\000\000\000\000\000>\000\000\000\000 Q\\=\000\000\000\000\000\000\000\000\\\376#>\000\000\000\000\000\000\000\000\260\275\024>\000\000\000\000\000\000\000\000\000\000\000\000\000\000\200>\000\000\000\000\000\000\000\000\000\000\000\000\000\000\000\000\\\376\243>\000\000\000\000\000\000\000\000\000\000\000\000\000\000\000\000\000\000\000\000\000\000\000\000\000\000\000?\000\000\000\000\000\000\000\000\000\000\000\000\000\000\000\000\000\000\000\000\000\000\000\000\000\000\000\000\000\000\000\000\000\000\000\000\000\000\000\000\000\000\000\000\000\000\000\000\000\000\000\000\000\000\000\000\000\000\000\000\000\000\000\000\000\000\000\000\000\000\000\000\000\000\000\000\000\000\000\000\000\000\000\000\000\000\000\000\000\000\000\000\000\000\000?\000\000\000\000\000\000\000\000\000\000\000\000\000\000\000\000\000\000\000\000\000\000\000\000\\\376\243>\000\000\000\000\000\000\000\000\000\000\000\000\000\000\000\000\000\000\200>\000\000\000\000\000\000\000\000\000\000\000\000\260\275\024>\000\000\000\000\000\000\000\000\\\376#>\000\000\000\000\000\000\000\000 Q\\=\000\000\000\000\000\000\000>\000\000\000\000\275\302\321=\000\000\000\000\260\275\224=\000\000\000\000\215\n\035;\\\376\243=\337\302n<\000\000\000\000 Q\334<\213\377P=\000\000\200=\333\017Y=\275\302Q=+\333L=\260\275\024=s!\242<!\303\232<\000\000\000\000\000\000\000\000\000\000\000\000\000\000\000\000\000\000\000\000\000\000\000\000\000\000\000\000\000\000\000\000\000\000\000\000\000\000\000\000\000\000\000\000\000\000\000\000\000\000\000\000\000\000\000\000\000\000\000\000\000\000\000\000\000\000\000\000\000\000\000\000\000\000\000\000\000\000\000\000\000\000\000\000\000\000\000\000\337\302n<\\\376\243=\215\n\035;\000\000\000\000\260\275\224=\000\000\000\000\275\302\321=\000\000\000\000\000\000\000>\000\000\000\000 Q\\=\000\000\000\000\000\000\000\000\\\376#>\000\000\000\000\000\000\000\000\260\275\024>\000\000\000\000\000\000\000\000\000\000\000\000\000\000\200>\000\000\000\000\000\000\000\000\000\000\000\000\000\000\000\000\\\376\243>\000\000\000\000\000\000\000\000\000\000\000\000\000\000\000\000\000\000\000\000\000\000\000\000\000\000\000?\000\000\000\000\000\000\000\000\000\000\000\000\000\000\000\000\000\000\000\000\000\000\000\000\000\000\000\000\000\000\000\000\000\000\000\000\000\000\000\000\000\000\000\000\000\000\000\000\000\000\000\000\000\000\000\000\000\000\000\000\000\000\000\000\000\000\000\000\000\000\000\000\000\000\000\000\000\000\000\000\000\000\000\000\000\000\000\000\000\000\000\000\000\000\000?\000\000\000\000\000\000\000\000\000\000\000\000\000\000\000\000\000\000\000\000\000\000\000\000\\\376\243>\000\000\000\000\000\000\000\000\000\000\000\000\000\000\000\000\000\000\200>\000\000\000\000\000\000\000\000\000\000\000\000\260\275\024>\000\000\000\000\000\000\000\000\\\376#>\000\000\000\000\000\000\000\000 Q\\=\000\000\000\000\000\000\000>\000\000\000\000\275\302\321=\000\000\000\000\260\275\224=\000\000\000\000\215\n\035;\\\376\243=\337\302n<\000\000\000\000 Q\334<\213\377P=\000\000\200=\333\017Y=\275\302Q=+\333L=\260\275\024=s!\242<!\303\232<\000\000\000\000\000\000\000\000\000\000\000\000\000\000\000\000\000\000\000\000\000\000\000\000\000\000\000\000\000\000\000\000\000\000\000\000\000\000\000\000\000\000\000\000\000\000\000\000\000\000\000\000\000\000\000\000\000\000\000\000\000\000\000\000\000\000\000\000\000\000\000\000\000\000\000\000\000\000\000\000\000\000\000\000\000\000\000\000\337\302n<\\\376\243=\215\n\035;\000\000\000\000\260\275\224=\000\000\000\000\275\302\321=\000\000\000\000\000\000\000>\000\000\000\000 Q\\=\000\000\000\000\000\000\000\000\\\376#>\000\000\000\000\000\000\000\000\260\275\024>\000\000\000\000\000\000\000\000\000\000\000\000\000\000\200>\000\000\000\000\000\000\000\000\000\000\000\000\000\000\000\000\\\376\243>\000\000\000\000\000\000\000\000\000\000\000\000\000\000\000\000\000\000\000\000\000\000\000\000\000\000\000?\000\000\000\000\000\000\000\000\000\000\000\000\000\000\000\000\000\000\000\000\000\000\000\000\000\000\000\000\000\000\000\000\000\000\000\000\000\000\000\000\000\000\000\000\000\000\000\000\000\000\000\000\000\000\000\000\000\000\000\000\000\000\000\000\000\000\000\000\000\000\000\000\000\000\000\000\000\000\000\000\000\000\000\000\000\000\000\000\000\000\000\000\000\000\000?\000\000\000\000\000\000\000\000\000\000\000\000\000\000\000\000\000\000\000\000\000\000\000\000\\\376\243>\000\000\000\000\000\000\000\000\000\000\000\000\000\000\000\000\000\000\200>\000\000\000\000\000\000\000\000\000\000\000\000\260\275\024>\000\000\000\000\000\000\000\000\\\376#>\000\000\000\000\000\000\000\000 Q\\=\000\000\000\000\000\000\000>\000\000\000\000\275\302\321=\000\000\000\000\260\275\224=\000\000\000\000\215\n\035;\\\376\243=\337\302n<\000\000\000\000 Q\334<\213\377P=\000\000\200=\333\017Y=\275\302Q=+\333L=\260\275\024=s!\242<!\303\232<\000\000\000\000\000\000\000\000\000\000\000\000\000\000\000\000\000\000\000\000\000\000\000\000\000\000\000\000\000\000\000\000\000\000\000\000\000\000\000\000\000\000\000\000\000\000\000\000\000\000\000\000\000\000\000\000\000\000\000\000\000\000\000\000\000\000\000\000\000\000\000\000\000\000\000\000\000\000\000\000 Q\334<\000\000\000\000\337\302n<\\\376\243=\215\n\035;\000\000\000\000\260\275\224=\000\000\000\000\275\302\321=\000\000\000\000\000\000\000>\000\000\000\000 Q\\=\000\000\000\000\000\000\000\000\\\376#>\000\000\000\000\000\000\000\000\260\275\024>\000\000\000\000\000\000\000\000\000\000\000\000\000\000\200>\000\000\000\000\000\000\000\000\000\000\000\000\000\000\000\000\\\376\243>\000\000\000\000\000\000\000\000\000\000\000\000\000\000\000\000\000\000\000\000\000\000\000\000\000\000\000?\000\000\000\000\000\000\000\000\000\000\000\000\000\000\000\000\000\000\000\000\000\000\000\000\000\000\000\000\000\000\000\000\000\000\000\000\000\000\000\000\000\000\000\000\000\000\000\000\000\000\000\000\000\000\000\000\000\000\000\000\000\000\000\000\000\000\000\000\000\000\000\000\000\000\000\000\000\000\000\000\000\000\000\000\000\000\000\000\000\000\000\000\000\000\000?\000\000\000\000\000\000\000\000\000\000\000\000\000\000\000\000\000\000\000\000\000\000\000\000\\\376\243>\000\000\000\000\000\000\000\000\000\000\000\000\000\000\000\000\000\000\200>\000\000\000\000\000\000\000\000\000\000\000\000\260\275\024>\000\000\000\000\000\000\000\000\\\376#>\000\000\000\000\000\000\000\000 Q\\=\000\000\000\000\000\000\000>\000\000\000\000\275\302\321=\000\000\000\000\260\275\224=\000\000\000\000\215\n\035;\\\376\243=\337\302n<\000\000\000\000 Q\334<\213\377P=\000\000\200=\333\017Y=\275\302Q=+\333L=\260\275\024=s!\242<!\303\232<\000\000\000\000\000\000\000\000\000\000\000\000\000\000\000\000\000\000\000\000\000\000\000\000\000\000\000\000\000\000\000\000\000\000\000\000\000\000\000\000\000\000\000\000\000\000\000\000\000\000\000\000\000\000\000\000\000\000\000\000\000\000\000\000\000\000\000\000\000\000\000\000\000\000\000\000\213\377P= Q\334<\000\000\000\000\337\302n<\\\376\243=\215\n\035;\000\000\000\000\260\275\224=\000\000\000\000\275\302\321=\000\000\000\000\000\000\000>\000\000\000\000 Q\\=\000\000\000\000\000\000\000\000\\\376#>\000\000\000\000\000\000\000\000\260\275\024>\000\000\000\000\000\000\000\000\000\000\000\000\000\000\200>\000\000\000\000\000\000\000\000\000\000\000\000\000\000\000\000\\\376\243>\000\000\000\000\000\000\000\000\000\000\000\000\000\000\000\000\000\000\000\000\000\000\000\000\000\000\000?\000\000\000\000\000\000\000\000\000\000\000\000\000\000\000\000\000\000\000\000\000\000\000\000\000\000\000\000\000\000\000\000\000\000\000\000\000\000\000\000\000\000\000\000\000\000\000\000\000\000\000\000\000\000\000\000\000\000\000\000\000\000\000\000\000\000\000\000\000\000\000\000\000\000\000\000\000\000\000\000\000\000\000\000\000\000\000\000\000\000\000\000\000\000\000?\000\000\000\000\000\000\000\000\000\000\000\000\000\000\000\000\000\000\000\000\000\000\000\000\\\376\243>\000\000\000\000\000\000\000\000\000\000\000\000\000\000\000\000\000\000\200>\000\000\000\000\000\000\000\000\000\000\000\000\260\275\024>\000\000\000\000\000\000\000\000\\\376#>\000\000\000\000\000\000\000\000 Q\\=\000\000\000\000\000\000\000>\000\000\000\000\275\302\321=\000\000\000\000\260\275\224=\000\000\000\000\215\n\035;\\\376\243=\337\302n<\000\000\000\000 Q\334<\213\377P=\000\000\200=\333\017Y=\275\302Q=+\333L=\260\275\024=s!\242<!\303\232<\000\000\000\000\000\000\000\000\000\000\000\000\000\000\000\000\000\000\000\000\000\000\000\000\000\000\000\000\000\000\000\000\000\000\000\000\000\000\000\000\000\000\000\000\000\000\000\000\000\000\000\000\000\000\000\000\000\000\000\000\000\000\000\000\000\000\000\000\000\000\000\000\000\000\200=\213\377P= Q\334<\000\000\000\000\337\302n<\\\376\243=\215\n\035;\000\000\000\000\260\275\224=\000\000\000\000\275\302\321=\000\000\000\000\000\000\000>\000\000\000\000 